{
  "vocab_size": 2076,
  "target_vocab_size": 10000,
  "encoder": {
    "<pad>": 0,
    "<bos>": 1,
    "<eos>": 2,
    "<unk>": 3,
    "<context_start>": 4,
    "<context_end>": 5,
    "<query_start>": 6,
    "<query_end>": 7,
    "<thought_start>": 8,
    "<thought_end>": 9,
    "<ans_start>": 10,
    "<ans_end>": 11,
    "<0x00>": 12,
    "<0x01>": 13,
    "<0x02>": 14,
    "<0x03>": 15,
    "<0x04>": 16,
    "<0x05>": 17,
    "<0x06>": 18,
    "<0x07>": 19,
    "<0x08>": 20,
    "<0x09>": 21,
    "<0x0A>": 22,
    "<0x0B>": 23,
    "<0x0C>": 24,
    "<0x0D>": 25,
    "<0x0E>": 26,
    "<0x0F>": 27,
    "<0x10>": 28,
    "<0x11>": 29,
    "<0x12>": 30,
    "<0x13>": 31,
    "<0x14>": 32,
    "<0x15>": 33,
    "<0x16>": 34,
    "<0x17>": 35,
    "<0x18>": 36,
    "<0x19>": 37,
    "<0x1A>": 38,
    "<0x1B>": 39,
    "<0x1C>": 40,
    "<0x1D>": 41,
    "<0x1E>": 42,
    "<0x1F>": 43,
    "<0x20>": 44,
    "<0x21>": 45,
    "<0x22>": 46,
    "<0x23>": 47,
    "<0x24>": 48,
    "<0x25>": 49,
    "<0x26>": 50,
    "<0x27>": 51,
    "<0x28>": 52,
    "<0x29>": 53,
    "<0x2A>": 54,
    "<0x2B>": 55,
    "<0x2C>": 56,
    "<0x2D>": 57,
    "<0x2E>": 58,
    "<0x2F>": 59,
    "<0x30>": 60,
    "<0x31>": 61,
    "<0x32>": 62,
    "<0x33>": 63,
    "<0x34>": 64,
    "<0x35>": 65,
    "<0x36>": 66,
    "<0x37>": 67,
    "<0x38>": 68,
    "<0x39>": 69,
    "<0x3A>": 70,
    "<0x3B>": 71,
    "<0x3C>": 72,
    "<0x3D>": 73,
    "<0x3E>": 74,
    "<0x3F>": 75,
    "<0x40>": 76,
    "<0x41>": 77,
    "<0x42>": 78,
    "<0x43>": 79,
    "<0x44>": 80,
    "<0x45>": 81,
    "<0x46>": 82,
    "<0x47>": 83,
    "<0x48>": 84,
    "<0x49>": 85,
    "<0x4A>": 86,
    "<0x4B>": 87,
    "<0x4C>": 88,
    "<0x4D>": 89,
    "<0x4E>": 90,
    "<0x4F>": 91,
    "<0x50>": 92,
    "<0x51>": 93,
    "<0x52>": 94,
    "<0x53>": 95,
    "<0x54>": 96,
    "<0x55>": 97,
    "<0x56>": 98,
    "<0x57>": 99,
    "<0x58>": 100,
    "<0x59>": 101,
    "<0x5A>": 102,
    "<0x5B>": 103,
    "<0x5C>": 104,
    "<0x5D>": 105,
    "<0x5E>": 106,
    "<0x5F>": 107,
    "<0x60>": 108,
    "<0x61>": 109,
    "<0x62>": 110,
    "<0x63>": 111,
    "<0x64>": 112,
    "<0x65>": 113,
    "<0x66>": 114,
    "<0x67>": 115,
    "<0x68>": 116,
    "<0x69>": 117,
    "<0x6A>": 118,
    "<0x6B>": 119,
    "<0x6C>": 120,
    "<0x6D>": 121,
    "<0x6E>": 122,
    "<0x6F>": 123,
    "<0x70>": 124,
    "<0x71>": 125,
    "<0x72>": 126,
    "<0x73>": 127,
    "<0x74>": 128,
    "<0x75>": 129,
    "<0x76>": 130,
    "<0x77>": 131,
    "<0x78>": 132,
    "<0x79>": 133,
    "<0x7A>": 134,
    "<0x7B>": 135,
    "<0x7C>": 136,
    "<0x7D>": 137,
    "<0x7E>": 138,
    "<0x7F>": 139,
    "<0x80>": 140,
    "<0x81>": 141,
    "<0x82>": 142,
    "<0x83>": 143,
    "<0x84>": 144,
    "<0x85>": 145,
    "<0x86>": 146,
    "<0x87>": 147,
    "<0x88>": 148,
    "<0x89>": 149,
    "<0x8A>": 150,
    "<0x8B>": 151,
    "<0x8C>": 152,
    "<0x8D>": 153,
    "<0x8E>": 154,
    "<0x8F>": 155,
    "<0x90>": 156,
    "<0x91>": 157,
    "<0x92>": 158,
    "<0x93>": 159,
    "<0x94>": 160,
    "<0x95>": 161,
    "<0x96>": 162,
    "<0x97>": 163,
    "<0x98>": 164,
    "<0x99>": 165,
    "<0x9A>": 166,
    "<0x9B>": 167,
    "<0x9C>": 168,
    "<0x9D>": 169,
    "<0x9E>": 170,
    "<0x9F>": 171,
    "<0xA0>": 172,
    "<0xA1>": 173,
    "<0xA2>": 174,
    "<0xA3>": 175,
    "<0xA4>": 176,
    "<0xA5>": 177,
    "<0xA6>": 178,
    "<0xA7>": 179,
    "<0xA8>": 180,
    "<0xA9>": 181,
    "<0xAA>": 182,
    "<0xAB>": 183,
    "<0xAC>": 184,
    "<0xAD>": 185,
    "<0xAE>": 186,
    "<0xAF>": 187,
    "<0xB0>": 188,
    "<0xB1>": 189,
    "<0xB2>": 190,
    "<0xB3>": 191,
    "<0xB4>": 192,
    "<0xB5>": 193,
    "<0xB6>": 194,
    "<0xB7>": 195,
    "<0xB8>": 196,
    "<0xB9>": 197,
    "<0xBA>": 198,
    "<0xBB>": 199,
    "<0xBC>": 200,
    "<0xBD>": 201,
    "<0xBE>": 202,
    "<0xBF>": 203,
    "<0xC0>": 204,
    "<0xC1>": 205,
    "<0xC2>": 206,
    "<0xC3>": 207,
    "<0xC4>": 208,
    "<0xC5>": 209,
    "<0xC6>": 210,
    "<0xC7>": 211,
    "<0xC8>": 212,
    "<0xC9>": 213,
    "<0xCA>": 214,
    "<0xCB>": 215,
    "<0xCC>": 216,
    "<0xCD>": 217,
    "<0xCE>": 218,
    "<0xCF>": 219,
    "<0xD0>": 220,
    "<0xD1>": 221,
    "<0xD2>": 222,
    "<0xD3>": 223,
    "<0xD4>": 224,
    "<0xD5>": 225,
    "<0xD6>": 226,
    "<0xD7>": 227,
    "<0xD8>": 228,
    "<0xD9>": 229,
    "<0xDA>": 230,
    "<0xDB>": 231,
    "<0xDC>": 232,
    "<0xDD>": 233,
    "<0xDE>": 234,
    "<0xDF>": 235,
    "<0xE0>": 236,
    "<0xE1>": 237,
    "<0xE2>": 238,
    "<0xE3>": 239,
    "<0xE4>": 240,
    "<0xE5>": 241,
    "<0xE6>": 242,
    "<0xE7>": 243,
    "<0xE8>": 244,
    "<0xE9>": 245,
    "<0xEA>": 246,
    "<0xEB>": 247,
    "<0xEC>": 248,
    "<0xED>": 249,
    "<0xEE>": 250,
    "<0xEF>": 251,
    "<0xF0>": 252,
    "<0xF1>": 253,
    "<0xF2>": 254,
    "<0xF3>": 255,
    "<0xF4>": 256,
    "<0xF5>": 257,
    "<0xF6>": 258,
    "<0xF7>": 259,
    "<0xF8>": 260,
    "<0xF9>": 261,
    "<0xFA>": 262,
    "<0xFB>": 263,
    "<0xFC>": 264,
    "<0xFD>": 265,
    "<0xFE>": 266,
    "<0xFF>": 267,
    "\n": 268,
    " ": 269,
    "!": 270,
    "$": 271,
    "%": 272,
    "&": 273,
    "'": 274,
    "(": 275,
    ")": 276,
    "+": 277,
    ",": 278,
    "-": 279,
    ".": 280,
    "/": 281,
    "0": 282,
    "1": 283,
    "2": 284,
    "3": 285,
    "4": 286,
    "5": 287,
    "6": 288,
    "7": 289,
    "8": 290,
    "9": 291,
    ":": 292,
    "?": 293,
    "@": 294,
    "A": 295,
    "B": 296,
    "C": 297,
    "D": 298,
    "E": 299,
    "F": 300,
    "G": 301,
    "H": 302,
    "I": 303,
    "J": 304,
    "K": 305,
    "L": 306,
    "M": 307,
    "N": 308,
    "O": 309,
    "P": 310,
    "Q": 311,
    "R": 312,
    "S": 313,
    "T": 314,
    "U": 315,
    "V": 316,
    "W": 317,
    "X": 318,
    "Y": 319,
    "Z": 320,
    "_": 321,
    "a": 322,
    "b": 323,
    "c": 324,
    "d": 325,
    "e": 326,
    "f": 327,
    "g": 328,
    "h": 329,
    "i": 330,
    "j": 331,
    "k": 332,
    "l": 333,
    "m": 334,
    "n": 335,
    "o": 336,
    "p": 337,
    "q": 338,
    "r": 339,
    "s": 340,
    "t": 341,
    "u": 342,
    "v": 343,
    "w": 344,
    "x": 345,
    "y": 346,
    "z": 347,
    "in": 348,
    "on": 349,
    "st": 350,
    "en": 351,
    "it": 352,
    "an": 353,
    "er": 354,
    "es": 355,
    "ou": 356,
    "or": 357,
    "re": 358,
    "ing": 359,
    "te": 360,
    "\n\n": 361,
    "us": 362,
    "ic": 363,
    "de": 364,
    "he": 365,
    "ion": 366,
    "and": 367,
    "al": 368,
    "at": 369,
    "lo": 370,
    "ent": 371,
    "the": 372,
    "ct": 373,
    "ar": 374,
    "kit": 375,
    "as": 376,
    "enkit": 377,
    "ro": 378,
    "ist": 379,
    "ig": 380,
    "is": 381,
    "to": 382,
    "le": 383,
    "ch": 384,
    "ve": 385,
    "AI": 386,
    "ol": 387,
    "ions": 388,
    "Genkit": 389,
    "xt": 390,
    "our": 391,
    "om": 392,
    "ser": 393,
    "onte": 394,
    "ontext": 395,
    "of": 396,
    "for": 397,
    "il": 398,
    "ant": 399,
    "ies": 400,
    "pro": 401,
    "ed": 402,
    "su": 403,
    "cl": 404,
    "ab": 405,
    "no": 406,
    "act": 407,
    "vi": 408,
    "ue": 409,
    "sist": 410,
    "ly": 411,
    "fic": 412,
    "tech": 413,
    "ust": 414,
    "uest": 415,
    "ns": 416,
    "wer": 417,
    "ory": 418,
    "sistant": 419,
    "serv": 420,
    "out": 421,
    "ma": 422,
    "ine": 423,
    "we": 424,
    "log": 425,
    "using": 426,
    "servic": 427,
    "nt": 428,
    "fici": 429,
    "Ans": 430,
    "Answer": 431,
    "Context": 432,
    "istory": 433,
    "Re": 434,
    "are": 435,
    "ment": 436,
    "ite": 437,
    "velo": 438,
    "velop": 439,
    "ac": 440,
    "com": 441,
    "ess": 442,
    "do": 443,
    "ag": 444,
    "nolog": 445,
    "ive": 446,
    "am": 447,
    "ur": 448,
    "velopment": 449,
    "be": 450,
    "No": 451,
    "ign": 452,
    "im": 453,
    "th": 454,
    "ect": 455,
    "technolog": 456,
    "pl": 457,
    "end": 458,
    "If": 459,
    "vide": 460,
    "mo": 461,
    "des": 462,
    "pol": 463,
    "you": 464,
    "ul": 465,
    "pe": 466,
    "tions": 467,
    "ack": 468,
    "em": 469,
    "ital": 470,
    "about": 471,
    "dig": 472,
    "digital": 473,
    "You": 474,
    "quest": 475,
    "questions": 476,
    "mail": 477,
    "As": 478,
    "ap": 479,
    "context": 480,
    "polite": 481,
    "politely": 482,
    "ject": 483,
    "services": 484,
    "age": 485,
    "yst": 486,
    "ystem": 487,
    "wor": 488,
    "Assistant": 489,
    "tr": 490,
    "Ado": 491,
    "Adobe": 492,
    "user": 493,
    "acts": 494,
    "genkit": 495,
    "ain": 496,
    "ous": 497,
    "ort": 498,
    "sol": 499,
    "We": 500,
    "ON": 501,
    "The": 502,
    "solu": 503,
    "solutions": 504,
    "pre": 505,
    "li": 506,
    "assistant": 507,
    "previ": 508,
    "previous": 509,
    "User": 510,
    "its": 511,
    "able": 512,
    "provide": 513,
    "System": 514,
    "offici": 515,
    "official": 516,
    "ONL": 517,
    "ONLY": 518,
    "facts": 519,
    "provided": 520,
    "insu": 521,
    "insuf": 522,
    "insuffici": 523,
    "insufficient": 524,
    "decl": 525,
    "decline": 526,
    "Int": 527,
    "Intent": 528,
    "Ent": 529,
    "Entit": 530,
    "Entities": 531,
    "History": 532,
    "history": 533,
    "Quest": 534,
    "Question": 535,
    "Reas": 536,
    "Reason": 537,
    "Reasoning": 538,
    "work": 539,
    "port": 540,
    "op": 541,
    "design": 542,
    "ation": 543,
    "ers": 544,
    "ne": 545,
    "ure": 546,
    "development": 547,
    "con": 548,
    "ex": 549,
    "ide": 550,
    "art": 551,
    "mod": 552,
    "ard": 553,
    "ad": 554,
    "low": 555,
    "project": 556,
    "ver": 557,
    "gmail": 558,
    "service": 559,
    "ase": 560,
    "sc": 561,
    "must": 562,
    "bus": 563,
    "busin": 564,
    "business": 565,
    "nd": 566,
    "tim": 567,
    "av": 568,
    "Pro": 569,
    "rand": 570,
    "hat": 571,
    "stand": 572,
    "fr": 573,
    "technology": 574,
    "king": 575,
    "ot": 576,
    "ll": 577,
    "et": 578,
    "web": 579,
    "qu": 580,
    "ustom": 581,
    "if": 582,
    "line": 583,
    "standard": 584,
    "ple": 585,
    "incl": 586,
    "inclu": 587,
    "off": 588,
    "res": 589,
    "your": 590,
    "ava": 591,
    "now": 592,
    "igh": 593,
    "De": 594,
    "dep": 595,
    "go": 596,
    "iz": 597,
    "se": 598,
    "arch": 599,
    "custom": 600,
    "tact": 601,
    "vis": 602,
    "stack": 603,
    "technologies": 604,
    "cre": 605,
    "ons": 606,
    "sup": 607,
    "ter": 608,
    "gr": 609,
    "ty": 610,
    "ho": 611,
    "this": 612,
    "asking": 613,
    "deli": 614,
    "deliver": 615,
    "bot": 616,
    "pr": 617,
    "ast": 618,
    "AP": 619,
    "API": 620,
    "Development": 621,
    "resp": 622,
    "support": 623,
    "SQ": 624,
    "SQL": 625,
    "can": 626,
    "ce": 627,
    "creat": 628,
    "ional": 629,
    "respons": 630,
    "responsive": 631,
    "side": 632,
    "ustr": 633,
    "me": 634,
    "uct": 635,
    "site": 636,
    "know": 637,
    "fram": 638,
    "high": 639,
    "typ": 640,
    "appl": 641,
    "applic": 642,
    "moder": 643,
    "modern": 644,
    "cure": 645,
    "fol": 646,
    "yth": 647,
    "what": 648,
    "wit": 649,
    "with": 650,
    "ans": 651,
    "ay": 652,
    "Our": 653,
    "ip": 654,
    "ound": 655,
    "00": 656,
    "aph": 657,
    "works": 658,
    "plain": 659,
    "ost": 660,
    "Fast": 661,
    "ene": 662,
    "enef": 663,
    "enefits": 664,
    "explain": 665,
    "tool": 666,
    "fe": 667,
    "Se": 668,
    "led": 669,
    "ity": 670,
    "creative": 671,
    "offer": 672,
    "used": 673,
    "brand": 674,
    "ations": 675,
    "ful": 676,
    "cor": 677,
    "sure": 678,
    "Fig": 679,
    "Figma": 680,
    "need": 681,
    "ci": 682,
    "want": 683,
    "ual": 684,
    "secure": 685,
    "loy": 686,
    "fess": 687,
    "fessional": 688,
    "ding": 689,
    "urn": 690,
    "urnar": 691,
    "urnaround": 692,
    "tools": 693,
    "omain": 694,
    "all": 695,
    "uses": 696,
    "workf": 697,
    "workflow": 698,
    "follow": 699,
    "frame": 700,
    "frameworks": 701,
    "Java": 702,
    "sh": 703,
    "SE": 704,
    "SEO": 705,
    "ann": 706,
    "FastAPI": 707,
    "ree": 708,
    "timiz": 709,
    "ensure": 710,
    "adj": 711,
    "ach": 712,
    "cr": 713,
    "pi": 714,
    "pipe": 715,
    "highly": 716,
    "Reach": 717,
    "include": 718,
    "Con": 719,
    "standards": 720,
    "use": 721,
    "ipt": 722,
    "oo": 723,
    "comm": 724,
    "spe": 725,
    "start": 726,
    "Pyth": 727,
    "Python": 728,
    "ey": 729,
    "domain": 730,
    "time": 731,
    "dat": 732,
    "ular": 733,
    "trans": 734,
    "video": 735,
    "ical": 736,
    "part": 737,
    "ted": 738,
    "develop": 739,
    "deploy": 740,
    "clar": 741,
    "clarif": 742,
    "clarify": 743,
    "role": 744,
    "usage": 745,
    "inside": 746,
    "pipeline": 747,
    "core": 748,
    "By": 749,
    "deliveries": 750,
    "modular": 751,
    "full": 752,
    "developers": 753,
    "sk": 754,
    "skil": 755,
    "skilled": 756,
    "adjac": 757,
    "adjacent": 758,
    "Let": 759,
    "next": 760,
    "application": 761,
    "ail": 762,
    "ails": 763,
    "My": 764,
    "MySQL": 765,
    "Web": 766,
    "bu": 767,
    "feat": 768,
    "Search": 769,
    "timization": 770,
    "how": 771,
    "ind": 772,
    "day": 773,
    "aphic": 774,
    "pric": 775,
    "cial": 776,
    "React": 777,
    "Ill": 778,
    "Illustr": 779,
    "Illustrat": 780,
    "Illustrator": 781,
    "Contact": 782,
    "team": 783,
    "pricing": 784,
    "bas": 785,
    "based": 786,
    "hour": 787,
    "Brand": 788,
    "please": 789,
    "contact": 790,
    "per": 791,
    "gine": 792,
    "Website": 793,
    "mi": 794,
    "ere": 795,
    "fter": 796,
    "sco": 797,
    "scope": 798,
    "After": 799,
    "page": 800,
    "including": 801,
    "ures": 802,
    "Goo": 803,
    "Goog": 804,
    "Google": 805,
    "Node": 806,
    "js": 807,
    "HT": 808,
    "HTM": 809,
    "HTML": 810,
    "CS": 811,
    "CSS": 812,
    "Key": 813,
    "UI": 814,
    "cript": 815,
    "Dj": 816,
    "Djan": 817,
    "Django": 818,
    "ate": 819,
    "tell": 820,
    "typical": 821,
    "qui": 822,
    "inqui": 823,
    "inquir": 824,
    "free": 825,
    "det": 826,
    "details": 827,
    "ave": 828,
    "back": 829,
    "backend": 830,
    "recomm": 831,
    "recommend": 832,
    "most": 833,
    "suit": 834,
    "suitable": 835,
    "str": 836,
    "Te": 837,
    "cli": 838,
    "client": 839,
    "prod": 840,
    "product": 841,
    "Tech": 842,
    "Technolog": 843,
    "Technologies": 844,
    "benefits": 845,
    "Project": 846,
    "timeline": 847,
    "plann": 848,
    "planning": 849,
    "di": 850,
    "wee": 851,
    "week": 852,
    "pack": 853,
    "visions": 854,
    "datab": 855,
    "avail": 856,
    "available": 857,
    "au": 858,
    "visual": 859,
    "comple": 860,
    "ref": 861,
    "500": 862,
    "gu": 863,
    "und": 864,
    "inter": 865,
    "HTML5": 866,
    "CSS3": 867,
    "Pho": 868,
    "Photo": 869,
    "Photosh": 870,
    "Photoshop": 871,
    "days": 872,
    "Pre": 873,
    "Premi": 874,
    "Premiere": 875,
    "Ef": 876,
    "Eff": 877,
    "Effect": 878,
    "Effects": 879,
    "JavaS": 880,
    "JavaScript": 881,
    "Chat": 882,
    "Chatbot": 883,
    "eting": 884,
    "form": 885,
    "email": 886,
    "logo": 887,
    "ge": 888,
    "comp": 889,
    "so": 890,
    "ages": 891,
    "branding": 892,
    "have": 893,
    "mar": 894,
    "mark": 895,
    "Des": 896,
    "depend": 897,
    "ongo": 898,
    "marketing": 899,
    "sit": 900,
    "ti": 901,
    "production": 902,
    "bots": 903,
    "Professional": 904,
    "Benefits": 905,
    "Turnaround": 906,
    "inquiring": 907,
    "offers": 908,
    "professional": 909,
    "lever": 910,
    "leverage": 911,
    "industr": 912,
    "industry": 913,
    "lib": 914,
    "libr": 915,
    "librar": 916,
    "libraries": 917,
    "features": 918,
    "Projects": 919,
    "turnaround": 920,
    "needs": 921,
    "rect": 922,
    "creative_": 923,
    "creative_tools": 924,
    "weeks": 925,
    "struct": 926,
    "structure": 927,
    "website": 928,
    "dent": 929,
    "dentity": 930,
    "erce": 931,
    "Non": 932,
    "up": 933,
    "ran": 934,
    "complex": 935,
    "par": 936,
    "imar": 937,
    "imary": 938,
    "auto": 939,
    "iting": 940,
    "gre": 941,
    "ls": 942,
    "ance": 943,
    "uring": 944,
    "UX": 945,
    "buil": 946,
    "automa": 947,
    "automated": 948,
    "sign": 949,
    "In": 950,
    "alls": 951,
    "archite": 952,
    "architect": 953,
    "logos": 954,
    "stor": 955,
    "quer": 956,
    "query": 957,
    "falls": 958,
    "hy": 959,
    "fo": 960,
    "Com": 961,
    "land": 962,
    "landing": 963,
    "Gr": 964,
    "Graphic": 965,
    "Design": 966,
    "Vide": 967,
    "Video": 968,
    "Ed": 969,
    "Editing": 970,
    "En": 971,
    "Engine": 972,
    "Op": 973,
    "Optimization": 974,
    "Branding": 975,
    "Vis": 976,
    "Visual": 977,
    "Identity": 978,
    "hel": 979,
    "ia": 980,
    "sites": 981,
    "igns": 982,
    "ments": 983,
    "gs": 984,
    "websites": 985,
    "fron": 986,
    "front": 987,
    "post": 988,
    "social": 989,
    "designed": 990,
    "lear": 991,
    "depending": 992,
    "Mongo": 993,
    "MongoD": 994,
    "MongoDB": 995,
    "Post": 996,
    "Postgre": 997,
    "PostgreSQL": 998,
    "help": 999,
    "ev": 1000,
    "ulti": 1001,
    "lin": 1002,
    "lines": 1003,
    "un": 1004,
    "applications": 1005,
    "ates": 1006,
    "ling": 1007,
    "typo": 1008,
    "typogr": 1009,
    "typograph": 1010,
    "typography": 1011,
    "ph": 1012,
    "yn": 1013,
    "pact": 1014,
    "ced": 1015,
    "load": 1016,
    "contr": 1017,
    "revisions": 1018,
    "ld": 1019,
    "el": 1020,
    "None": 1021,
    "my": 1022,
    "options": 1023,
    "Pr": 1024,
    "polic": 1025,
    "info": 1026,
    "gal": 1027,
    "package": 1028,
    "during": 1029,
    "starts": 1030,
    "transpar": 1031,
    "transparent": 1032,
    "ould": 1033,
    "co": 1034,
    "any": 1035,
    "company": 1036,
    "top": 1037,
    "topic": 1038,
    "projects": 1039,
    "af": 1040,
    "ize": 1041,
    "special": 1042,
    "High": 1043,
    "them": 1044,
    "specialize": 1045,
    "olor": 1046,
    "optimization": 1047,
    "traf": 1048,
    "traffic": 1049,
    "ranking": 1050,
    "rankings": 1051,
    "fi": 1052,
    "fix": 1053,
    "built": 1054,
    "ports": 1055,
    "out_": 1056,
    "out_of": 1057,
    "out_of_": 1058,
    "out_of_domain": 1059,
    "outside": 1060,
    "refuse": 1061,
    "redi": 1062,
    "redirect": 1063,
    "excl": 1064,
    "exclus": 1065,
    "exclusive": 1066,
    "exclusively": 1067,
    "assist": 1068,
    "not": 1069,
    "Ple": 1070,
    "Please": 1071,
    "feel": 1072,
    "ask": 1073,
    "anyth": 1074,
    "anything": 1075,
    "tic": 1076,
    "word": 1077,
    "bi": 1078,
    "bile": 1079,
    "Primary": 1080,
    "customer": 1081,
    "45": 1082,
    "int": 1083,
    "graphic": 1084,
    "clients": 1085,
    "perform": 1086,
    "performance": 1087,
    "does": 1088,
    "system": 1089,
    "io": 1090,
    "chat": 1091,
    "24": 1092,
    "wers": 1093,
    "All": 1094,
    "frontend": 1095,
    "scr": 1096,
    "true": 1097,
    "ific": 1098,
    "ificant": 1099,
    "stu": 1100,
    "stud": 1101,
    "database": 1102,
    "databas": 1103,
    "databases": 1104,
    "consu": 1105,
    "consul": 1106,
    "consult": 1107,
    "iv": 1108,
    "als": 1109,
    "engine": 1110,
    "dr": 1111,
    "bugs": 1112,
    "agr": 1113,
    "consultation": 1114,
    "rul": 1115,
    "rules": 1116,
    "tit": 1117,
    "mon": 1118,
    "month": 1119,
    "anne": 1120,
    "annels": 1121,
    "stagr": 1122,
    "stagram": 1123,
    "fro": 1124,
    "from": 1125,
    "inte": 1126,
    "integr": 1127,
    "ww": 1128,
    "ke": 1129,
    "intell": 1130,
    "intellig": 1131,
    "intelligent": 1132,
    "integrations": 1133,
    "rob": 1134,
    "robust": 1135,
    "ply": 1136,
    "sty": 1137,
    "fly": 1138,
    "flyers": 1139,
    "med": 1140,
    "media": 1141,
    "An": 1142,
    "retr": 1143,
    "retri": 1144,
    "retriev": 1145,
    "Py": 1146,
    "PyT": 1147,
    "PyTor": 1148,
    "PyTorch": 1149,
    "less": 1150,
    "interact": 1151,
    "Ex": 1152,
    "why": 1153,
    "ource": 1154,
    "ynam": 1155,
    "ynamic": 1156,
    "transit": 1157,
    "transitions": 1158,
    "dio": 1159,
    "les": 1160,
    "speci": 1161,
    "specific": 1162,
    "impact": 1163,
    "architecture": 1164,
    "Instagram": 1165,
    "Git": 1166,
    "GitH": 1167,
    "GitHu": 1168,
    "GitHub": 1169,
    "card": 1170,
    "uced": 1171,
    "Expr": 1172,
    "Express": 1173,
    "scal": 1174,
    "scalable": 1175,
    "rates": 1176,
    "Le": 1177,
    "within": 1178,
    "15": 1179,
    "Lex": 1180,
    "Lexi": 1181,
    "LexiB": 1182,
    "LexiBot": 1183,
    "Legal": 1184,
    "Comm": 1185,
    "Commerce": 1186,
    "refund": 1187,
    "starting": 1188,
    "packages": 1189,
    "min": 1190,
    "fully": 1191,
    "acro": 1192,
    "acros": 1193,
    "across": 1194,
    "hours": 1195,
    "ility": 1196,
    "policy": 1197,
    "designs": 1198,
    "sistent": 1199,
    "ial": 1200,
    "show": 1201,
    "tics": 1202,
    "Pl": 1203,
    "sche": 1204,
    "hes": 1205,
    "hesive": 1206,
    "delivery": 1207,
    "90": 1208,
    "Revisions": 1209,
    "unl": 1210,
    "unlim": 1211,
    "unlimit": 1212,
    "unlimited": 1213,
    "phase": 1214,
    "coding": 1215,
    "wil": 1216,
    "will": 1217,
    "quo": 1218,
    "clear": 1219,
    "contracts": 1220,
    "case": 1221,
    "speed": 1222,
    "1500": 1223,
    "commerce": 1224,
    "stores": 1225,
    "300": 1226,
    "3000": 1227,
    "vides": 1228,
    "ck": 1229,
    "ized": 1230,
    "give": 1231,
    "St": 1232,
    "wi": 1233,
    "wire": 1234,
    "wirefram": 1235,
    "wireframing": 1236,
    "systems": 1237,
    "descr": 1238,
    "descri": 1239,
    "describe": 1240,
    "tion": 1241,
    "multi": 1242,
    "should": 1243,
    "online": 1244,
    "under": 1245,
    "pay": 1246,
    "ilo": 1247,
    "ilos": 1248,
    "ilosop": 1249,
    "lay": 1250,
    "layout": 1251,
    "layouts": 1252,
    "script": 1253,
    "ateg": 1254,
    "ategory": 1255,
    "doc": 1256,
    "docu": 1257,
    "document": 1258,
    "heck": 1259,
    "Us": 1260,
    "Used": 1261,
    "edits": 1262,
    "vect": 1263,
    "vector": 1264,
    "interactive": 1265,
    "Dep": 1266,
    "Deploy": 1267,
    "Deploys": 1268,
    "transact": 1269,
    "Po": 1270,
    "Powers": 1271,
    "graphics": 1272,
    "portfol": 1273,
    "portfolio": 1274,
    "interf": 1275,
    "interfac": 1276,
    "interfaces": 1277,
    "APIs": 1278,
    "guide": 1279,
    "po": 1280,
    "um": 1281,
    "cap": 1282,
    "beli": 1283,
    "arge": 1284,
    "significant": 1285,
    "today": 1286,
    "portals": 1287,
    "ading": 1288,
    "techn": 1289,
    "technical": 1290,
    "qual": 1291,
    "quality": 1292,
    "ips": 1293,
    "boo": 1294,
    "iq": 1295,
    "ique": 1296,
    "cont": 1297,
    "content": 1298,
    "ib": 1299,
    "sub": 1300,
    "creativ": 1301,
    "creatives": 1302,
    "cam": 1303,
    "camp": 1304,
    "campa": 1305,
    "campaigns": 1306,
    "thum": 1307,
    "thumb": 1308,
    "thumbn": 1309,
    "thumbnails": 1310,
    "bann": 1311,
    "banners": 1312,
    "YouT": 1313,
    "YouTu": 1314,
    "YouTube": 1315,
    "ads": 1316,
    "reels": 1317,
    "short": 1318,
    "clips": 1319,
    "drive": 1320,
    "org": 1321,
    "organ": 1322,
    "organic": 1323,
    "impro": 1324,
    "improve": 1325,
    "search": 1326,
    "aly": 1327,
    "cess": 1328,
    "Comple": 1329,
    "Complete": 1330,
    "creation": 1331,
    "color": 1332,
    "pal": 1333,
    "palet": 1334,
    "palett": 1335,
    "palettes": 1336,
    "style": 1337,
    "gui": 1338,
    "guides": 1339,
    "agent": 1340,
    "agents": 1341,
    "chatbots": 1342,
    "workflows": 1343,
    "LL": 1344,
    "LLM": 1345,
    "architectures": 1346,
    "amless": 1347,
    "mic": 1348,
    "micro": 1349,
    "Custom": 1350,
    "pages": 1351,
    "fast": 1352,
    "Un": 1353,
    "Unique": 1354,
    "ele": 1355,
    "elements": 1356,
    "align": 1357,
    "alignment": 1358,
    "Source": 1359,
    "fil": 1360,
    "files": 1361,
    "included": 1362,
    "Multi": 1363,
    "format": 1364,
    "exports": 1365,
    "Dynamic": 1366,
    "Color": 1367,
    "grading": 1368,
    "correct": 1369,
    "corrections": 1370,
    "Au": 1371,
    "Audio": 1372,
    "leve": 1373,
    "leveling": 1374,
    "roy": 1375,
    "royal": 1376,
    "royalty": 1377,
    "mus": 1378,
    "music": 1379,
    "subtit": 1380,
    "subtitles": 1381,
    "captions": 1382,
    "ta": 1383,
    "Cons": 1384,
    "Conso": 1385,
    "Console": 1386,
    "Analy": 1387,
    "Analytics": 1388,
    "Keyword": 1389,
    "Plann": 1390,
    "Planner": 1391,
    "Higher": 1392,
    "Targe": 1393,
    "Targeted": 1394,
    "key": 1395,
    "keyword": 1396,
    "depth": 1397,
    "reports": 1398,
    "Spe": 1399,
    "Speed": 1400,
    "mobile": 1401,
    "usab": 1402,
    "usability": 1403,
    "fixes": 1404,
    "On": 1405,
    "Ongo": 1406,
    "Ongoing": 1407,
    "monthly": 1408,
    "ret": 1409,
    "retain": 1410,
    "retainers": 1411,
    "Th": 1412,
    "This": 1413,
    "Mem": 1414,
    "Memor": 1415,
    "Memorable": 1416,
    "Co": 1417,
    "Cohesive": 1418,
    "guidelines": 1419,
    "Consistent": 1420,
    "tou": 1421,
    "touch": 1422,
    "touchpo": 1423,
    "touchpoint": 1424,
    "touchpoints": 1425,
    "sci": 1426,
    "scikit": 1427,
    "learn": 1428,
    "Domain": 1429,
    "knowled": 1430,
    "knowledge": 1431,
    "retrieval": 1432,
    "Red": 1433,
    "Reduced": 1434,
    "Seamless": 1435,
    "proto": 1436,
    "prototyp": 1437,
    "prototypes": 1438,
    "oost": 1439,
    "oosted": 1440,
    "tric": 1441,
    "Mo": 1442,
    "Mobile": 1443,
    "optimiz": 1444,
    "optimized": 1445,
    "speeds": 1446,
    "Secure": 1447,
    "complexity": 1448,
    "du": 1449,
    "book": 1450,
    "channels": 1451,
    "study": 1452,
    "studies": 1453,
    "feature": 1454,
    "featured": 1455,
    "enc": 1456,
    "ency": 1457,
    "chatbot": 1458,
    "remo": 1459,
    "remote": 1460,
    "glo": 1461,
    "via": 1462,
    "cent": 1463,
    "centr": 1464,
    "centric": 1465,
    "Ind": 1466,
    "India": 1467,
    "like": 1468,
    "ht": 1469,
    "htt": 1470,
    "http": 1471,
    "https": 1472,
    "www": 1473,
    "typically": 1474,
    "reply": 1475,
    "minu": 1476,
    "minute": 1477,
    "scop": 1478,
    "scoping": 1479,
    "maint": 1480,
    "ilosophy": 1481,
    "cle": 1482,
    "clean": 1483,
    "fun": 1484,
    "funct": 1485,
    "functional": 1486,
    "state": 1487,
    "contact_": 1488,
    "contact_info": 1489,
    "Ch": 1490,
    "Channels": 1491,
    "Email": 1492,
    "supply": 1493,
    "primary": 1494,
    "eas": 1495,
    "easil": 1496,
    "easily": 1497,
    "serving": 1498,
    "globe": 1499,
    "also": 1500,
    "find": 1501,
    "check": 1502,
    "inquiries": 1503,
    "would": 1504,
    "visit": 1505,
    "schedu": 1506,
    "schedule": 1507,
    "call": 1508,
    "contract": 1509,
    "ts": 1510,
    "mainten": 1511,
    "maintenance": 1512,
    "Sh": 1513,
    "Shop": 1514,
    "ShopS": 1515,
    "ShopSm": 1516,
    "ShopSmart": 1517,
    "Refr": 1518,
    "Refres": 1519,
    "Refresh": 1520,
    "hourly": 1521,
    "cost": 1522,
    "row": 1523,
    "businesses": 1524,
    "provides": 1525,
    "isc": 1526,
    "ND": 1527,
    "NDAs": 1528,
    "startup": 1529,
    "startups": 1530,
    "sm": 1531,
    "small": 1532,
    "pres": 1533,
    "vision": 1534,
    "lon": 1535,
    "cat": 1536,
    "term": 1537,
    "Disc": 1538,
    "Disclo": 1539,
    "Disclosure": 1540,
    "Ag": 1541,
    "Agree": 1542,
    "Agreements": 1543,
    "prote": 1544,
    "protect": 1545,
    "IP": 1546,
    "customized": 1547,
    "quot": 1548,
    "For": 1549,
    "found": 1550,
    "real": 1551,
    "support_": 1552,
    "support_policy": 1553,
    "Sup": 1554,
    "Support": 1555,
    "perio": 1556,
    "period": 1557,
    "rang": 1558,
    "ranging": 1559,
    "rema": 1560,
    "remain": 1561,
    "agre": 1562,
    "agreed": 1563,
    "Sign": 1564,
    "Significant": 1565,
    "exp": 1566,
    "expans": 1567,
    "expansions": 1568,
    "quoted": 1569,
    "separ": 1570,
    "separate": 1571,
    "separately": 1572,
    "timelines": 1573,
    "revision": 1574,
    "constr": 1575,
    "constrain": 1576,
    "constraints": 1577,
    "policies": 1578,
    "guar": 1579,
    "guaran": 1580,
    "guarante": 1581,
    "guarantees": 1582,
    "dependable": 1583,
    "terms": 1584,
    "complete": 1585,
    "peac": 1586,
    "peace": 1587,
    "mind": 1588,
    "win": 1589,
    "windo": 1590,
    "window": 1591,
    "addr": 1592,
    "address": 1593,
    "adjust": 1594,
    "adjustments": 1595,
    "init": 1596,
    "initial": 1597,
    "fit": 1598,
    "Part": 1599,
    "Partial": 1600,
    "refunds": 1601,
    "progr": 1602,
    "progress": 1603,
    "stages": 1604,
    "ongoing": 1605,
    "updat": 1606,
    "updates": 1607,
    "plans": 1608,
    "150": 1609,
    "ome": 1610,
    "pricing_": 1611,
    "pricing_sign": 1612,
    "pricing_signal": 1613,
    "Start": 1614,
    "Starter": 1615,
    "Hour": 1616,
    "Hourly": 1617,
    "rate": 1618,
    "present": 1619,
    "tiers": 1620,
    "quotes": 1621,
    "option": 1622,
    "believ": 1623,
    "believes": 1624,
    "compe": 1625,
    "competit": 1626,
    "competitive": 1627,
    "outstand": 1628,
    "outstanding": 1629,
    "val": 1630,
    "value": 1631,
    "starter": 1632,
    "4500": 1633,
    "35": 1634,
    "65": 1635,
    "engineer": 1636,
    "engineering": 1637,
    "Bund": 1638,
    "Bundled": 1639,
    "needing": 1640,
    "multiple": 1641,
    "giv": 1642,
    "giving": 1643,
    "sav": 1644,
    "saving": 1645,
    "savings": 1646,
    "goals": 1647,
    "quote": 1648,
    "here": 1649,
    "that": 1650,
    "liable": 1651,
    "enter": 1652,
    "enterpr": 1653,
    "enterpris": 1654,
    "sof": 1655,
    "soft": 1656,
    "softw": 1657,
    "software": 1658,
    "ational": 1659,
    "admin": 1660,
    "long": 1661,
    "man": 1662,
    "intern": 1663,
    "internal": 1664,
    "retrieves": 1665,
    "reg": 1666,
    "regul": 1667,
    "regulat": 1668,
    "regulatory": 1669,
    "cla": 1670,
    "clauses": 1671,
    "answers": 1672,
    "store": 1673,
    "storefront": 1674,
    "featuring": 1675,
    "catal": 1676,
    "catalo": 1677,
    "catalogs": 1678,
    "bil": 1679,
    "billing": 1680,
    "payment": 1681,
    "fle": 1682,
    "flex": 1683,
    "flexib": 1684,
    "flexible": 1685,
    "rel": 1686,
    "data": 1687,
    "Str": 1688,
    "Struct": 1689,
    "Structur": 1690,
    "Structural": 1691,
    "styling": 1692,
    "foundations": 1693,
    "take": 1694,
    "Provides": 1695,
    "scripting": 1696,
    "logic": 1697,
    "DO": 1698,
    "DOM": 1699,
    "manip": 1700,
    "manipul": 1701,
    "manipulations": 1702,
    "brow": 1703,
    "browser": 1704,
    "browsers": 1705,
    "Category": 1706,
    "Descript": 1707,
    "Description": 1708,
    "Im": 1709,
    "Impact": 1710,
    "Save": 1711,
    "Saved": 1712,
    "legal": 1713,
    "12": 1714,
    "loo": 1715,
    "look": 1716,
    "lookup": 1717,
    "rese": 1718,
    "research": 1719,
    "suc": 1720,
    "success": 1721,
    "successfully": 1722,
    "delivered": 1723,
    "category": 1724,
    "following": 1725,
    "had": 1726,
    "maj": 1727,
    "major": 1728,
    "sim": 1729,
    "simil": 1730,
    "similar": 1731,
    "ideal": 1732,
    "ima": 1733,
    "image": 1734,
    "compo": 1735,
    "composit": 1736,
    "compositions": 1737,
    "lan": 1738,
    "langu": 1739,
    "language": 1740,
    "pipelines": 1741,
    "scrap": 1742,
    "scraping": 1743,
    "scripts": 1744,
    "Stand": 1745,
    "Standard": 1746,
    "Boosted": 1747,
    "sal": 1748,
    "sales": 1749,
    "by": 1750,
    "red": 1751,
    "reduced": 1752,
    "times": 1753,
    "secon": 1754,
    "second": 1755,
    "seconds": 1756,
    "enterprise": 1757,
    "gra": 1758,
    "grade": 1759,
    "microservices": 1760,
    "transaction": 1761,
    "kine": 1762,
    "kinetic": 1763,
    "motion": 1764,
    "anim": 1765,
    "animations": 1766,
    "Ut": 1767,
    "Util": 1768,
    "Utilized": 1769,
    "heav": 1770,
    "heavy": 1771,
    "mess": 1772,
    "messag": 1773,
    "messaging": 1774,
    "server": 1775,
    "toolkit": 1776,
    "audio": 1777,
    "mix": 1778,
    "mixing": 1779,
    "track": 1780,
    "logs": 1781,
    "Cre": 1782,
    "Creates": 1783,
    "compon": 1784,
    "component": 1785,
    "sing": 1786,
    "single": 1787,
    "NoSQL": 1788,
    "storage": 1789,
    "schema": 1790,
    "conf": 1791,
    "config": 1792,
    "configur": 1793,
    "configurations": 1794,
    "dynamic": 1795,
    "payload": 1796,
    "payloads": 1797,
    "Reliable": 1798,
    "relational": 1799,
    "transactional": 1800,
    "consist": 1801,
    "consistency": 1802,
    "structured": 1803,
    "tab": 1804,
    "tables": 1805,
    "Ad": 1806,
    "Adv": 1807,
    "Advan": 1808,
    "Advanced": 1809,
    "open": 1810,
    "source": 1811,
    "JS": 1812,
    "JSON": 1813,
    "querying": 1814,
    "geome": 1815,
    "geometric": 1816,
    "building": 1817,
    "asyn": 1818,
    "asynch": 1819,
    "asynchr": 1820,
    "asynchron": 1821,
    "asynchronous": 1822,
    "cards": 1823,
    "exam": 1824,
    "exampl": 1825,
    "examples": 1826,
    "where": 1827,
    "scor": 1828,
    "score": 1829,
    "orate": 1830,
    "est": 1831,
    "over": 1832,
    "belie": 1833,
    "believe": 1834,
    "consistent": 1835,
    "incor": 1836,
    "incorp": 1837,
    "incorporate": 1838,
    "interactions": 1839,
    "rig": 1840,
    "rigor": 1841,
    "rigorous": 1842,
    "access": 1843,
    "accessib": 1844,
    "accessibility": 1845,
    "philosophy": 1846,
    "ha": 1847,
    "set": 1848,
    "Ph": 1849,
    "Philosophy": 1850,
    "Case": 1851,
    "Plat": 1852,
    "Platform": 1853,
    "philosop": 1854,
    "philosoph": 1855,
    "philosophies": 1856,
    "tak": 1857,
    "takes": 1858,
    "imm": 1859,
    "immen": 1860,
    "immense": 1861,
    "pride": 1862,
    "delivering": 1863,
    "foc": 1864,
    "focuses": 1865,
    "aest": 1866,
    "aesthe": 1867,
    "aesthetics": 1868,
    "cohesive": 1869,
    "identity": 1870,
    "rebuilt": 1871,
    "portal": 1872,
    "overha": 1873,
    "overhaul": 1874,
    "resul": 1875,
    "resulted": 1876,
    "98": 1877,
    "100": 1878,
    "boosted": 1879,
    "conv": 1880,
    "convers": 1881,
    "conversion": 1882,
    "metric": 1883,
    "metrics": 1884,
    "significantly": 1885,
    "Check": 1886,
    "asset": 1887,
    "assets": 1888,
    "greeting": 1889,
    "respon": 1890,
    "respond": 1891,
    "editing": 1892,
    "ath": 1893,
    "past": 1894,
    "ca": 1895,
    "pop": 1896,
    "ick": 1897,
    "What": 1898,
    "agency": 1899,
    "grow": 1900,
    "come": 1901,
    "Hel": 1902,
    "premi": 1903,
    "intro": 1904,
    "introdu": 1905,
    "introduce": 1906,
    "Hello": 1907,
    "wel": 1908,
    "welcome": 1909,
    "premier": 1910,
    "cover": 1911,
    "autom": 1912,
    "automation": 1913,
    "read": 1914,
    "ready": 1915,
    "lau": 1916,
    "laun": 1917,
    "launch": 1918,
    "Wor": 1919,
    "allow": 1920,
    "mem": 1921,
    "memb": 1922,
    "members": 1923,
    "weath": 1924,
    "weather": 1925,
    "sto": 1926,
    "stock": 1927,
    "ime": 1928,
    "ister": 1929,
    "solve": 1930,
    "capital": 1931,
    "Fran": 1932,
    "France": 1933,
    "World": 1934,
    "Cup": 1935,
    "price": 1936,
    "bud": 1937,
    "budg": 1938,
    "budget": 1939,
    "rite": 1940,
    "poem": 1941,
    "buy": 1942,
    "estate": 1943,
    "reci": 1944,
    "recipe": 1945,
    "pasta": 1946,
    "founders": 1947,
    "market": 1948,
    "booking": 1949,
    "fl": 1950,
    "fligh": 1951,
    "flights": 1952,
    "Par": 1953,
    "Paris": 1954,
    "cry": 1955,
    "cryp": 1956,
    "crypto": 1957,
    "cryptoc": 1958,
    "cryptocur": 1959,
    "cryptocurr": 1960,
    "cryptocurrency": 1961,
    "loca": 1962,
    "located": 1963,
    "grav": 1964,
    "gravity": 1965,
    "foo": 1966,
    "food": 1967,
    "brands": 1968,
    "Prime": 1969,
    "Min": 1970,
    "Minister": 1971,
    "popular": 1972,
    "son": 1973,
    "songs": 1974,
    "instagram": 1975,
    "who": 1976,
    "best": 1977,
    "action": 1978,
    "mov": 1979,
    "movies": 1980,
    "quant": 1981,
    "quantum": 1982,
    "phy": 1983,
    "phys": 1984,
    "physic": 1985,
    "physics": 1986,
    "math": 1987,
    "home": 1988,
    "homework": 1989,
    "ba": 1990,
    "bake": 1991,
    "cake": 1992,
    "nda": 1993,
    "FI": 1994,
    "FIF": 1995,
    "FIFA": 1996,
    "Elon": 1997,
    "Mus": 1998,
    "Musk": 1999,
    "quick": 2000,
    "quickly": 2001,
    "reach": 2002,
    "mu": 2003,
    "much": 2004,
    "charge": 2005,
    "allowed": 2006,
    "Bit": 2007,
    "Bitco": 2008,
    "Bitcoin": 2009,
    "crick": 2010,
    "cricket": 2011,
    "write": 2012,
    "love": 2013,
    "hello": 2014,
    "hey": 2015,
    "goo": 2016,
    "good": 2017,
    "there": 2018,
    "fri": 2019,
    "friend": 2020,
    "inform": 2021,
    "information": 2022,
    "Tell": 2023,
    "hi": 2024,
    "hol": 2025,
    "hola": 2026,
    "whats": 2027,
    "even": 2028,
    "evening": 2029,
    "greetings": 2030,
    "after": 2031,
    "afterno": 2032,
    "afternoon": 2033,
    "mor": 2034,
    "morn": 2035,
    "morning": 2036,
    "don": 2037,
    "verif": 2038,
    "verifi": 2039,
    "verified": 2040,
    "To": 2041,
    "glob": 2042,
    "global": 2043,
    "mode": 2044,
    "20": 2045,
    "nov": 2046,
    "novat": 2047,
    "ence": 2048,
    "one": 2049,
    "roof": 2050,
    "mis": 2051,
    "miss": 2052,
    "affor": 2053,
    "afford": 2054,
    "affordable": 2055,
    "partn": 2056,
    "partners": 2057,
    "oper": 2058,
    "model": 2059,
    "globally": 2060,
    "consultations": 2061,
    "Free": 2062,
    "booked": 2063,
    "cal": 2064,
    "Do": 2065,
    "Word": 2066,
    "WordPr": 2067,
    "WordPress": 2068,
    "Yes": 2069,
    "Ho": 2070,
    "unique": 2071,
    "acy": 2072,
    "into": 2073,
    "Ne": 2074,
    "Who": 2075
  },
  "vocab": {
    "<pad>": 0,
    "<bos>": 1,
    "<eos>": 2,
    "<unk>": 3,
    "<context_start>": 4,
    "<context_end>": 5,
    "<query_start>": 6,
    "<query_end>": 7,
    "<thought_start>": 8,
    "<thought_end>": 9,
    "<ans_start>": 10,
    "<ans_end>": 11,
    "<0x00>": 12,
    "<0x01>": 13,
    "<0x02>": 14,
    "<0x03>": 15,
    "<0x04>": 16,
    "<0x05>": 17,
    "<0x06>": 18,
    "<0x07>": 19,
    "<0x08>": 20,
    "<0x09>": 21,
    "<0x0A>": 22,
    "<0x0B>": 23,
    "<0x0C>": 24,
    "<0x0D>": 25,
    "<0x0E>": 26,
    "<0x0F>": 27,
    "<0x10>": 28,
    "<0x11>": 29,
    "<0x12>": 30,
    "<0x13>": 31,
    "<0x14>": 32,
    "<0x15>": 33,
    "<0x16>": 34,
    "<0x17>": 35,
    "<0x18>": 36,
    "<0x19>": 37,
    "<0x1A>": 38,
    "<0x1B>": 39,
    "<0x1C>": 40,
    "<0x1D>": 41,
    "<0x1E>": 42,
    "<0x1F>": 43,
    "<0x20>": 44,
    "<0x21>": 45,
    "<0x22>": 46,
    "<0x23>": 47,
    "<0x24>": 48,
    "<0x25>": 49,
    "<0x26>": 50,
    "<0x27>": 51,
    "<0x28>": 52,
    "<0x29>": 53,
    "<0x2A>": 54,
    "<0x2B>": 55,
    "<0x2C>": 56,
    "<0x2D>": 57,
    "<0x2E>": 58,
    "<0x2F>": 59,
    "<0x30>": 60,
    "<0x31>": 61,
    "<0x32>": 62,
    "<0x33>": 63,
    "<0x34>": 64,
    "<0x35>": 65,
    "<0x36>": 66,
    "<0x37>": 67,
    "<0x38>": 68,
    "<0x39>": 69,
    "<0x3A>": 70,
    "<0x3B>": 71,
    "<0x3C>": 72,
    "<0x3D>": 73,
    "<0x3E>": 74,
    "<0x3F>": 75,
    "<0x40>": 76,
    "<0x41>": 77,
    "<0x42>": 78,
    "<0x43>": 79,
    "<0x44>": 80,
    "<0x45>": 81,
    "<0x46>": 82,
    "<0x47>": 83,
    "<0x48>": 84,
    "<0x49>": 85,
    "<0x4A>": 86,
    "<0x4B>": 87,
    "<0x4C>": 88,
    "<0x4D>": 89,
    "<0x4E>": 90,
    "<0x4F>": 91,
    "<0x50>": 92,
    "<0x51>": 93,
    "<0x52>": 94,
    "<0x53>": 95,
    "<0x54>": 96,
    "<0x55>": 97,
    "<0x56>": 98,
    "<0x57>": 99,
    "<0x58>": 100,
    "<0x59>": 101,
    "<0x5A>": 102,
    "<0x5B>": 103,
    "<0x5C>": 104,
    "<0x5D>": 105,
    "<0x5E>": 106,
    "<0x5F>": 107,
    "<0x60>": 108,
    "<0x61>": 109,
    "<0x62>": 110,
    "<0x63>": 111,
    "<0x64>": 112,
    "<0x65>": 113,
    "<0x66>": 114,
    "<0x67>": 115,
    "<0x68>": 116,
    "<0x69>": 117,
    "<0x6A>": 118,
    "<0x6B>": 119,
    "<0x6C>": 120,
    "<0x6D>": 121,
    "<0x6E>": 122,
    "<0x6F>": 123,
    "<0x70>": 124,
    "<0x71>": 125,
    "<0x72>": 126,
    "<0x73>": 127,
    "<0x74>": 128,
    "<0x75>": 129,
    "<0x76>": 130,
    "<0x77>": 131,
    "<0x78>": 132,
    "<0x79>": 133,
    "<0x7A>": 134,
    "<0x7B>": 135,
    "<0x7C>": 136,
    "<0x7D>": 137,
    "<0x7E>": 138,
    "<0x7F>": 139,
    "<0x80>": 140,
    "<0x81>": 141,
    "<0x82>": 142,
    "<0x83>": 143,
    "<0x84>": 144,
    "<0x85>": 145,
    "<0x86>": 146,
    "<0x87>": 147,
    "<0x88>": 148,
    "<0x89>": 149,
    "<0x8A>": 150,
    "<0x8B>": 151,
    "<0x8C>": 152,
    "<0x8D>": 153,
    "<0x8E>": 154,
    "<0x8F>": 155,
    "<0x90>": 156,
    "<0x91>": 157,
    "<0x92>": 158,
    "<0x93>": 159,
    "<0x94>": 160,
    "<0x95>": 161,
    "<0x96>": 162,
    "<0x97>": 163,
    "<0x98>": 164,
    "<0x99>": 165,
    "<0x9A>": 166,
    "<0x9B>": 167,
    "<0x9C>": 168,
    "<0x9D>": 169,
    "<0x9E>": 170,
    "<0x9F>": 171,
    "<0xA0>": 172,
    "<0xA1>": 173,
    "<0xA2>": 174,
    "<0xA3>": 175,
    "<0xA4>": 176,
    "<0xA5>": 177,
    "<0xA6>": 178,
    "<0xA7>": 179,
    "<0xA8>": 180,
    "<0xA9>": 181,
    "<0xAA>": 182,
    "<0xAB>": 183,
    "<0xAC>": 184,
    "<0xAD>": 185,
    "<0xAE>": 186,
    "<0xAF>": 187,
    "<0xB0>": 188,
    "<0xB1>": 189,
    "<0xB2>": 190,
    "<0xB3>": 191,
    "<0xB4>": 192,
    "<0xB5>": 193,
    "<0xB6>": 194,
    "<0xB7>": 195,
    "<0xB8>": 196,
    "<0xB9>": 197,
    "<0xBA>": 198,
    "<0xBB>": 199,
    "<0xBC>": 200,
    "<0xBD>": 201,
    "<0xBE>": 202,
    "<0xBF>": 203,
    "<0xC0>": 204,
    "<0xC1>": 205,
    "<0xC2>": 206,
    "<0xC3>": 207,
    "<0xC4>": 208,
    "<0xC5>": 209,
    "<0xC6>": 210,
    "<0xC7>": 211,
    "<0xC8>": 212,
    "<0xC9>": 213,
    "<0xCA>": 214,
    "<0xCB>": 215,
    "<0xCC>": 216,
    "<0xCD>": 217,
    "<0xCE>": 218,
    "<0xCF>": 219,
    "<0xD0>": 220,
    "<0xD1>": 221,
    "<0xD2>": 222,
    "<0xD3>": 223,
    "<0xD4>": 224,
    "<0xD5>": 225,
    "<0xD6>": 226,
    "<0xD7>": 227,
    "<0xD8>": 228,
    "<0xD9>": 229,
    "<0xDA>": 230,
    "<0xDB>": 231,
    "<0xDC>": 232,
    "<0xDD>": 233,
    "<0xDE>": 234,
    "<0xDF>": 235,
    "<0xE0>": 236,
    "<0xE1>": 237,
    "<0xE2>": 238,
    "<0xE3>": 239,
    "<0xE4>": 240,
    "<0xE5>": 241,
    "<0xE6>": 242,
    "<0xE7>": 243,
    "<0xE8>": 244,
    "<0xE9>": 245,
    "<0xEA>": 246,
    "<0xEB>": 247,
    "<0xEC>": 248,
    "<0xED>": 249,
    "<0xEE>": 250,
    "<0xEF>": 251,
    "<0xF0>": 252,
    "<0xF1>": 253,
    "<0xF2>": 254,
    "<0xF3>": 255,
    "<0xF4>": 256,
    "<0xF5>": 257,
    "<0xF6>": 258,
    "<0xF7>": 259,
    "<0xF8>": 260,
    "<0xF9>": 261,
    "<0xFA>": 262,
    "<0xFB>": 263,
    "<0xFC>": 264,
    "<0xFD>": 265,
    "<0xFE>": 266,
    "<0xFF>": 267,
    "\n": 268,
    " ": 269,
    "!": 270,
    "$": 271,
    "%": 272,
    "&": 273,
    "'": 274,
    "(": 275,
    ")": 276,
    "+": 277,
    ",": 278,
    "-": 279,
    ".": 280,
    "/": 281,
    "0": 282,
    "1": 283,
    "2": 284,
    "3": 285,
    "4": 286,
    "5": 287,
    "6": 288,
    "7": 289,
    "8": 290,
    "9": 291,
    ":": 292,
    "?": 293,
    "@": 294,
    "A": 295,
    "B": 296,
    "C": 297,
    "D": 298,
    "E": 299,
    "F": 300,
    "G": 301,
    "H": 302,
    "I": 303,
    "J": 304,
    "K": 305,
    "L": 306,
    "M": 307,
    "N": 308,
    "O": 309,
    "P": 310,
    "Q": 311,
    "R": 312,
    "S": 313,
    "T": 314,
    "U": 315,
    "V": 316,
    "W": 317,
    "X": 318,
    "Y": 319,
    "Z": 320,
    "_": 321,
    "a": 322,
    "b": 323,
    "c": 324,
    "d": 325,
    "e": 326,
    "f": 327,
    "g": 328,
    "h": 329,
    "i": 330,
    "j": 331,
    "k": 332,
    "l": 333,
    "m": 334,
    "n": 335,
    "o": 336,
    "p": 337,
    "q": 338,
    "r": 339,
    "s": 340,
    "t": 341,
    "u": 342,
    "v": 343,
    "w": 344,
    "x": 345,
    "y": 346,
    "z": 347,
    "in": 348,
    "on": 349,
    "st": 350,
    "en": 351,
    "it": 352,
    "an": 353,
    "er": 354,
    "es": 355,
    "ou": 356,
    "or": 357,
    "re": 358,
    "ing": 359,
    "te": 360,
    "\n\n": 361,
    "us": 362,
    "ic": 363,
    "de": 364,
    "he": 365,
    "ion": 366,
    "and": 367,
    "al": 368,
    "at": 369,
    "lo": 370,
    "ent": 371,
    "the": 372,
    "ct": 373,
    "ar": 374,
    "kit": 375,
    "as": 376,
    "enkit": 377,
    "ro": 378,
    "ist": 379,
    "ig": 380,
    "is": 381,
    "to": 382,
    "le": 383,
    "ch": 384,
    "ve": 385,
    "AI": 386,
    "ol": 387,
    "ions": 388,
    "Genkit": 389,
    "xt": 390,
    "our": 391,
    "om": 392,
    "ser": 393,
    "onte": 394,
    "ontext": 395,
    "of": 396,
    "for": 397,
    "il": 398,
    "ant": 399,
    "ies": 400,
    "pro": 401,
    "ed": 402,
    "su": 403,
    "cl": 404,
    "ab": 405,
    "no": 406,
    "act": 407,
    "vi": 408,
    "ue": 409,
    "sist": 410,
    "ly": 411,
    "fic": 412,
    "tech": 413,
    "ust": 414,
    "uest": 415,
    "ns": 416,
    "wer": 417,
    "ory": 418,
    "sistant": 419,
    "serv": 420,
    "out": 421,
    "ma": 422,
    "ine": 423,
    "we": 424,
    "log": 425,
    "using": 426,
    "servic": 427,
    "nt": 428,
    "fici": 429,
    "Ans": 430,
    "Answer": 431,
    "Context": 432,
    "istory": 433,
    "Re": 434,
    "are": 435,
    "ment": 436,
    "ite": 437,
    "velo": 438,
    "velop": 439,
    "ac": 440,
    "com": 441,
    "ess": 442,
    "do": 443,
    "ag": 444,
    "nolog": 445,
    "ive": 446,
    "am": 447,
    "ur": 448,
    "velopment": 449,
    "be": 450,
    "No": 451,
    "ign": 452,
    "im": 453,
    "th": 454,
    "ect": 455,
    "technolog": 456,
    "pl": 457,
    "end": 458,
    "If": 459,
    "vide": 460,
    "mo": 461,
    "des": 462,
    "pol": 463,
    "you": 464,
    "ul": 465,
    "pe": 466,
    "tions": 467,
    "ack": 468,
    "em": 469,
    "ital": 470,
    "about": 471,
    "dig": 472,
    "digital": 473,
    "You": 474,
    "quest": 475,
    "questions": 476,
    "mail": 477,
    "As": 478,
    "ap": 479,
    "context": 480,
    "polite": 481,
    "politely": 482,
    "ject": 483,
    "services": 484,
    "age": 485,
    "yst": 486,
    "ystem": 487,
    "wor": 488,
    "Assistant": 489,
    "tr": 490,
    "Ado": 491,
    "Adobe": 492,
    "user": 493,
    "acts": 494,
    "genkit": 495,
    "ain": 496,
    "ous": 497,
    "ort": 498,
    "sol": 499,
    "We": 500,
    "ON": 501,
    "The": 502,
    "solu": 503,
    "solutions": 504,
    "pre": 505,
    "li": 506,
    "assistant": 507,
    "previ": 508,
    "previous": 509,
    "User": 510,
    "its": 511,
    "able": 512,
    "provide": 513,
    "System": 514,
    "offici": 515,
    "official": 516,
    "ONL": 517,
    "ONLY": 518,
    "facts": 519,
    "provided": 520,
    "insu": 521,
    "insuf": 522,
    "insuffici": 523,
    "insufficient": 524,
    "decl": 525,
    "decline": 526,
    "Int": 527,
    "Intent": 528,
    "Ent": 529,
    "Entit": 530,
    "Entities": 531,
    "History": 532,
    "history": 533,
    "Quest": 534,
    "Question": 535,
    "Reas": 536,
    "Reason": 537,
    "Reasoning": 538,
    "work": 539,
    "port": 540,
    "op": 541,
    "design": 542,
    "ation": 543,
    "ers": 544,
    "ne": 545,
    "ure": 546,
    "development": 547,
    "con": 548,
    "ex": 549,
    "ide": 550,
    "art": 551,
    "mod": 552,
    "ard": 553,
    "ad": 554,
    "low": 555,
    "project": 556,
    "ver": 557,
    "gmail": 558,
    "service": 559,
    "ase": 560,
    "sc": 561,
    "must": 562,
    "bus": 563,
    "busin": 564,
    "business": 565,
    "nd": 566,
    "tim": 567,
    "av": 568,
    "Pro": 569,
    "rand": 570,
    "hat": 571,
    "stand": 572,
    "fr": 573,
    "technology": 574,
    "king": 575,
    "ot": 576,
    "ll": 577,
    "et": 578,
    "web": 579,
    "qu": 580,
    "ustom": 581,
    "if": 582,
    "line": 583,
    "standard": 584,
    "ple": 585,
    "incl": 586,
    "inclu": 587,
    "off": 588,
    "res": 589,
    "your": 590,
    "ava": 591,
    "now": 592,
    "igh": 593,
    "De": 594,
    "dep": 595,
    "go": 596,
    "iz": 597,
    "se": 598,
    "arch": 599,
    "custom": 600,
    "tact": 601,
    "vis": 602,
    "stack": 603,
    "technologies": 604,
    "cre": 605,
    "ons": 606,
    "sup": 607,
    "ter": 608,
    "gr": 609,
    "ty": 610,
    "ho": 611,
    "this": 612,
    "asking": 613,
    "deli": 614,
    "deliver": 615,
    "bot": 616,
    "pr": 617,
    "ast": 618,
    "AP": 619,
    "API": 620,
    "Development": 621,
    "resp": 622,
    "support": 623,
    "SQ": 624,
    "SQL": 625,
    "can": 626,
    "ce": 627,
    "creat": 628,
    "ional": 629,
    "respons": 630,
    "responsive": 631,
    "side": 632,
    "ustr": 633,
    "me": 634,
    "uct": 635,
    "site": 636,
    "know": 637,
    "fram": 638,
    "high": 639,
    "typ": 640,
    "appl": 641,
    "applic": 642,
    "moder": 643,
    "modern": 644,
    "cure": 645,
    "fol": 646,
    "yth": 647,
    "what": 648,
    "wit": 649,
    "with": 650,
    "ans": 651,
    "ay": 652,
    "Our": 653,
    "ip": 654,
    "ound": 655,
    "00": 656,
    "aph": 657,
    "works": 658,
    "plain": 659,
    "ost": 660,
    "Fast": 661,
    "ene": 662,
    "enef": 663,
    "enefits": 664,
    "explain": 665,
    "tool": 666,
    "fe": 667,
    "Se": 668,
    "led": 669,
    "ity": 670,
    "creative": 671,
    "offer": 672,
    "used": 673,
    "brand": 674,
    "ations": 675,
    "ful": 676,
    "cor": 677,
    "sure": 678,
    "Fig": 679,
    "Figma": 680,
    "need": 681,
    "ci": 682,
    "want": 683,
    "ual": 684,
    "secure": 685,
    "loy": 686,
    "fess": 687,
    "fessional": 688,
    "ding": 689,
    "urn": 690,
    "urnar": 691,
    "urnaround": 692,
    "tools": 693,
    "omain": 694,
    "all": 695,
    "uses": 696,
    "workf": 697,
    "workflow": 698,
    "follow": 699,
    "frame": 700,
    "frameworks": 701,
    "Java": 702,
    "sh": 703,
    "SE": 704,
    "SEO": 705,
    "ann": 706,
    "FastAPI": 707,
    "ree": 708,
    "timiz": 709,
    "ensure": 710,
    "adj": 711,
    "ach": 712,
    "cr": 713,
    "pi": 714,
    "pipe": 715,
    "highly": 716,
    "Reach": 717,
    "include": 718,
    "Con": 719,
    "standards": 720,
    "use": 721,
    "ipt": 722,
    "oo": 723,
    "comm": 724,
    "spe": 725,
    "start": 726,
    "Pyth": 727,
    "Python": 728,
    "ey": 729,
    "domain": 730,
    "time": 731,
    "dat": 732,
    "ular": 733,
    "trans": 734,
    "video": 735,
    "ical": 736,
    "part": 737,
    "ted": 738,
    "develop": 739,
    "deploy": 740,
    "clar": 741,
    "clarif": 742,
    "clarify": 743,
    "role": 744,
    "usage": 745,
    "inside": 746,
    "pipeline": 747,
    "core": 748,
    "By": 749,
    "deliveries": 750,
    "modular": 751,
    "full": 752,
    "developers": 753,
    "sk": 754,
    "skil": 755,
    "skilled": 756,
    "adjac": 757,
    "adjacent": 758,
    "Let": 759,
    "next": 760,
    "application": 761,
    "ail": 762,
    "ails": 763,
    "My": 764,
    "MySQL": 765,
    "Web": 766,
    "bu": 767,
    "feat": 768,
    "Search": 769,
    "timization": 770,
    "how": 771,
    "ind": 772,
    "day": 773,
    "aphic": 774,
    "pric": 775,
    "cial": 776,
    "React": 777,
    "Ill": 778,
    "Illustr": 779,
    "Illustrat": 780,
    "Illustrator": 781,
    "Contact": 782,
    "team": 783,
    "pricing": 784,
    "bas": 785,
    "based": 786,
    "hour": 787,
    "Brand": 788,
    "please": 789,
    "contact": 790,
    "per": 791,
    "gine": 792,
    "Website": 793,
    "mi": 794,
    "ere": 795,
    "fter": 796,
    "sco": 797,
    "scope": 798,
    "After": 799,
    "page": 800,
    "including": 801,
    "ures": 802,
    "Goo": 803,
    "Goog": 804,
    "Google": 805,
    "Node": 806,
    "js": 807,
    "HT": 808,
    "HTM": 809,
    "HTML": 810,
    "CS": 811,
    "CSS": 812,
    "Key": 813,
    "UI": 814,
    "cript": 815,
    "Dj": 816,
    "Djan": 817,
    "Django": 818,
    "ate": 819,
    "tell": 820,
    "typical": 821,
    "qui": 822,
    "inqui": 823,
    "inquir": 824,
    "free": 825,
    "det": 826,
    "details": 827,
    "ave": 828,
    "back": 829,
    "backend": 830,
    "recomm": 831,
    "recommend": 832,
    "most": 833,
    "suit": 834,
    "suitable": 835,
    "str": 836,
    "Te": 837,
    "cli": 838,
    "client": 839,
    "prod": 840,
    "product": 841,
    "Tech": 842,
    "Technolog": 843,
    "Technologies": 844,
    "benefits": 845,
    "Project": 846,
    "timeline": 847,
    "plann": 848,
    "planning": 849,
    "di": 850,
    "wee": 851,
    "week": 852,
    "pack": 853,
    "visions": 854,
    "datab": 855,
    "avail": 856,
    "available": 857,
    "au": 858,
    "visual": 859,
    "comple": 860,
    "ref": 861,
    "500": 862,
    "gu": 863,
    "und": 864,
    "inter": 865,
    "HTML5": 866,
    "CSS3": 867,
    "Pho": 868,
    "Photo": 869,
    "Photosh": 870,
    "Photoshop": 871,
    "days": 872,
    "Pre": 873,
    "Premi": 874,
    "Premiere": 875,
    "Ef": 876,
    "Eff": 877,
    "Effect": 878,
    "Effects": 879,
    "JavaS": 880,
    "JavaScript": 881,
    "Chat": 882,
    "Chatbot": 883,
    "eting": 884,
    "form": 885,
    "email": 886,
    "logo": 887,
    "ge": 888,
    "comp": 889,
    "so": 890,
    "ages": 891,
    "branding": 892,
    "have": 893,
    "mar": 894,
    "mark": 895,
    "Des": 896,
    "depend": 897,
    "ongo": 898,
    "marketing": 899,
    "sit": 900,
    "ti": 901,
    "production": 902,
    "bots": 903,
    "Professional": 904,
    "Benefits": 905,
    "Turnaround": 906,
    "inquiring": 907,
    "offers": 908,
    "professional": 909,
    "lever": 910,
    "leverage": 911,
    "industr": 912,
    "industry": 913,
    "lib": 914,
    "libr": 915,
    "librar": 916,
    "libraries": 917,
    "features": 918,
    "Projects": 919,
    "turnaround": 920,
    "needs": 921,
    "rect": 922,
    "creative_": 923,
    "creative_tools": 924,
    "weeks": 925,
    "struct": 926,
    "structure": 927,
    "website": 928,
    "dent": 929,
    "dentity": 930,
    "erce": 931,
    "Non": 932,
    "up": 933,
    "ran": 934,
    "complex": 935,
    "par": 936,
    "imar": 937,
    "imary": 938,
    "auto": 939,
    "iting": 940,
    "gre": 941,
    "ls": 942,
    "ance": 943,
    "uring": 944,
    "UX": 945,
    "buil": 946,
    "automa": 947,
    "automated": 948,
    "sign": 949,
    "In": 950,
    "alls": 951,
    "archite": 952,
    "architect": 953,
    "logos": 954,
    "stor": 955,
    "quer": 956,
    "query": 957,
    "falls": 958,
    "hy": 959,
    "fo": 960,
    "Com": 961,
    "land": 962,
    "landing": 963,
    "Gr": 964,
    "Graphic": 965,
    "Design": 966,
    "Vide": 967,
    "Video": 968,
    "Ed": 969,
    "Editing": 970,
    "En": 971,
    "Engine": 972,
    "Op": 973,
    "Optimization": 974,
    "Branding": 975,
    "Vis": 976,
    "Visual": 977,
    "Identity": 978,
    "hel": 979,
    "ia": 980,
    "sites": 981,
    "igns": 982,
    "ments": 983,
    "gs": 984,
    "websites": 985,
    "fron": 986,
    "front": 987,
    "post": 988,
    "social": 989,
    "designed": 990,
    "lear": 991,
    "depending": 992,
    "Mongo": 993,
    "MongoD": 994,
    "MongoDB": 995,
    "Post": 996,
    "Postgre": 997,
    "PostgreSQL": 998,
    "help": 999,
    "ev": 1000,
    "ulti": 1001,
    "lin": 1002,
    "lines": 1003,
    "un": 1004,
    "applications": 1005,
    "ates": 1006,
    "ling": 1007,
    "typo": 1008,
    "typogr": 1009,
    "typograph": 1010,
    "typography": 1011,
    "ph": 1012,
    "yn": 1013,
    "pact": 1014,
    "ced": 1015,
    "load": 1016,
    "contr": 1017,
    "revisions": 1018,
    "ld": 1019,
    "el": 1020,
    "None": 1021,
    "my": 1022,
    "options": 1023,
    "Pr": 1024,
    "polic": 1025,
    "info": 1026,
    "gal": 1027,
    "package": 1028,
    "during": 1029,
    "starts": 1030,
    "transpar": 1031,
    "transparent": 1032,
    "ould": 1033,
    "co": 1034,
    "any": 1035,
    "company": 1036,
    "top": 1037,
    "topic": 1038,
    "projects": 1039,
    "af": 1040,
    "ize": 1041,
    "special": 1042,
    "High": 1043,
    "them": 1044,
    "specialize": 1045,
    "olor": 1046,
    "optimization": 1047,
    "traf": 1048,
    "traffic": 1049,
    "ranking": 1050,
    "rankings": 1051,
    "fi": 1052,
    "fix": 1053,
    "built": 1054,
    "ports": 1055,
    "out_": 1056,
    "out_of": 1057,
    "out_of_": 1058,
    "out_of_domain": 1059,
    "outside": 1060,
    "refuse": 1061,
    "redi": 1062,
    "redirect": 1063,
    "excl": 1064,
    "exclus": 1065,
    "exclusive": 1066,
    "exclusively": 1067,
    "assist": 1068,
    "not": 1069,
    "Ple": 1070,
    "Please": 1071,
    "feel": 1072,
    "ask": 1073,
    "anyth": 1074,
    "anything": 1075,
    "tic": 1076,
    "word": 1077,
    "bi": 1078,
    "bile": 1079,
    "Primary": 1080,
    "customer": 1081,
    "45": 1082,
    "int": 1083,
    "graphic": 1084,
    "clients": 1085,
    "perform": 1086,
    "performance": 1087,
    "does": 1088,
    "system": 1089,
    "io": 1090,
    "chat": 1091,
    "24": 1092,
    "wers": 1093,
    "All": 1094,
    "frontend": 1095,
    "scr": 1096,
    "true": 1097,
    "ific": 1098,
    "ificant": 1099,
    "stu": 1100,
    "stud": 1101,
    "database": 1102,
    "databas": 1103,
    "databases": 1104,
    "consu": 1105,
    "consul": 1106,
    "consult": 1107,
    "iv": 1108,
    "als": 1109,
    "engine": 1110,
    "dr": 1111,
    "bugs": 1112,
    "agr": 1113,
    "consultation": 1114,
    "rul": 1115,
    "rules": 1116,
    "tit": 1117,
    "mon": 1118,
    "month": 1119,
    "anne": 1120,
    "annels": 1121,
    "stagr": 1122,
    "stagram": 1123,
    "fro": 1124,
    "from": 1125,
    "inte": 1126,
    "integr": 1127,
    "ww": 1128,
    "ke": 1129,
    "intell": 1130,
    "intellig": 1131,
    "intelligent": 1132,
    "integrations": 1133,
    "rob": 1134,
    "robust": 1135,
    "ply": 1136,
    "sty": 1137,
    "fly": 1138,
    "flyers": 1139,
    "med": 1140,
    "media": 1141,
    "An": 1142,
    "retr": 1143,
    "retri": 1144,
    "retriev": 1145,
    "Py": 1146,
    "PyT": 1147,
    "PyTor": 1148,
    "PyTorch": 1149,
    "less": 1150,
    "interact": 1151,
    "Ex": 1152,
    "why": 1153,
    "ource": 1154,
    "ynam": 1155,
    "ynamic": 1156,
    "transit": 1157,
    "transitions": 1158,
    "dio": 1159,
    "les": 1160,
    "speci": 1161,
    "specific": 1162,
    "impact": 1163,
    "architecture": 1164,
    "Instagram": 1165,
    "Git": 1166,
    "GitH": 1167,
    "GitHu": 1168,
    "GitHub": 1169,
    "card": 1170,
    "uced": 1171,
    "Expr": 1172,
    "Express": 1173,
    "scal": 1174,
    "scalable": 1175,
    "rates": 1176,
    "Le": 1177,
    "within": 1178,
    "15": 1179,
    "Lex": 1180,
    "Lexi": 1181,
    "LexiB": 1182,
    "LexiBot": 1183,
    "Legal": 1184,
    "Comm": 1185,
    "Commerce": 1186,
    "refund": 1187,
    "starting": 1188,
    "packages": 1189,
    "min": 1190,
    "fully": 1191,
    "acro": 1192,
    "acros": 1193,
    "across": 1194,
    "hours": 1195,
    "ility": 1196,
    "policy": 1197,
    "designs": 1198,
    "sistent": 1199,
    "ial": 1200,
    "show": 1201,
    "tics": 1202,
    "Pl": 1203,
    "sche": 1204,
    "hes": 1205,
    "hesive": 1206,
    "delivery": 1207,
    "90": 1208,
    "Revisions": 1209,
    "unl": 1210,
    "unlim": 1211,
    "unlimit": 1212,
    "unlimited": 1213,
    "phase": 1214,
    "coding": 1215,
    "wil": 1216,
    "will": 1217,
    "quo": 1218,
    "clear": 1219,
    "contracts": 1220,
    "case": 1221,
    "speed": 1222,
    "1500": 1223,
    "commerce": 1224,
    "stores": 1225,
    "300": 1226,
    "3000": 1227,
    "vides": 1228,
    "ck": 1229,
    "ized": 1230,
    "give": 1231,
    "St": 1232,
    "wi": 1233,
    "wire": 1234,
    "wirefram": 1235,
    "wireframing": 1236,
    "systems": 1237,
    "descr": 1238,
    "descri": 1239,
    "describe": 1240,
    "tion": 1241,
    "multi": 1242,
    "should": 1243,
    "online": 1244,
    "under": 1245,
    "pay": 1246,
    "ilo": 1247,
    "ilos": 1248,
    "ilosop": 1249,
    "lay": 1250,
    "layout": 1251,
    "layouts": 1252,
    "script": 1253,
    "ateg": 1254,
    "ategory": 1255,
    "doc": 1256,
    "docu": 1257,
    "document": 1258,
    "heck": 1259,
    "Us": 1260,
    "Used": 1261,
    "edits": 1262,
    "vect": 1263,
    "vector": 1264,
    "interactive": 1265,
    "Dep": 1266,
    "Deploy": 1267,
    "Deploys": 1268,
    "transact": 1269,
    "Po": 1270,
    "Powers": 1271,
    "graphics": 1272,
    "portfol": 1273,
    "portfolio": 1274,
    "interf": 1275,
    "interfac": 1276,
    "interfaces": 1277,
    "APIs": 1278,
    "guide": 1279,
    "po": 1280,
    "um": 1281,
    "cap": 1282,
    "beli": 1283,
    "arge": 1284,
    "significant": 1285,
    "today": 1286,
    "portals": 1287,
    "ading": 1288,
    "techn": 1289,
    "technical": 1290,
    "qual": 1291,
    "quality": 1292,
    "ips": 1293,
    "boo": 1294,
    "iq": 1295,
    "ique": 1296,
    "cont": 1297,
    "content": 1298,
    "ib": 1299,
    "sub": 1300,
    "creativ": 1301,
    "creatives": 1302,
    "cam": 1303,
    "camp": 1304,
    "campa": 1305,
    "campaigns": 1306,
    "thum": 1307,
    "thumb": 1308,
    "thumbn": 1309,
    "thumbnails": 1310,
    "bann": 1311,
    "banners": 1312,
    "YouT": 1313,
    "YouTu": 1314,
    "YouTube": 1315,
    "ads": 1316,
    "reels": 1317,
    "short": 1318,
    "clips": 1319,
    "drive": 1320,
    "org": 1321,
    "organ": 1322,
    "organic": 1323,
    "impro": 1324,
    "improve": 1325,
    "search": 1326,
    "aly": 1327,
    "cess": 1328,
    "Comple": 1329,
    "Complete": 1330,
    "creation": 1331,
    "color": 1332,
    "pal": 1333,
    "palet": 1334,
    "palett": 1335,
    "palettes": 1336,
    "style": 1337,
    "gui": 1338,
    "guides": 1339,
    "agent": 1340,
    "agents": 1341,
    "chatbots": 1342,
    "workflows": 1343,
    "LL": 1344,
    "LLM": 1345,
    "architectures": 1346,
    "amless": 1347,
    "mic": 1348,
    "micro": 1349,
    "Custom": 1350,
    "pages": 1351,
    "fast": 1352,
    "Un": 1353,
    "Unique": 1354,
    "ele": 1355,
    "elements": 1356,
    "align": 1357,
    "alignment": 1358,
    "Source": 1359,
    "fil": 1360,
    "files": 1361,
    "included": 1362,
    "Multi": 1363,
    "format": 1364,
    "exports": 1365,
    "Dynamic": 1366,
    "Color": 1367,
    "grading": 1368,
    "correct": 1369,
    "corrections": 1370,
    "Au": 1371,
    "Audio": 1372,
    "leve": 1373,
    "leveling": 1374,
    "roy": 1375,
    "royal": 1376,
    "royalty": 1377,
    "mus": 1378,
    "music": 1379,
    "subtit": 1380,
    "subtitles": 1381,
    "captions": 1382,
    "ta": 1383,
    "Cons": 1384,
    "Conso": 1385,
    "Console": 1386,
    "Analy": 1387,
    "Analytics": 1388,
    "Keyword": 1389,
    "Plann": 1390,
    "Planner": 1391,
    "Higher": 1392,
    "Targe": 1393,
    "Targeted": 1394,
    "key": 1395,
    "keyword": 1396,
    "depth": 1397,
    "reports": 1398,
    "Spe": 1399,
    "Speed": 1400,
    "mobile": 1401,
    "usab": 1402,
    "usability": 1403,
    "fixes": 1404,
    "On": 1405,
    "Ongo": 1406,
    "Ongoing": 1407,
    "monthly": 1408,
    "ret": 1409,
    "retain": 1410,
    "retainers": 1411,
    "Th": 1412,
    "This": 1413,
    "Mem": 1414,
    "Memor": 1415,
    "Memorable": 1416,
    "Co": 1417,
    "Cohesive": 1418,
    "guidelines": 1419,
    "Consistent": 1420,
    "tou": 1421,
    "touch": 1422,
    "touchpo": 1423,
    "touchpoint": 1424,
    "touchpoints": 1425,
    "sci": 1426,
    "scikit": 1427,
    "learn": 1428,
    "Domain": 1429,
    "knowled": 1430,
    "knowledge": 1431,
    "retrieval": 1432,
    "Red": 1433,
    "Reduced": 1434,
    "Seamless": 1435,
    "proto": 1436,
    "prototyp": 1437,
    "prototypes": 1438,
    "oost": 1439,
    "oosted": 1440,
    "tric": 1441,
    "Mo": 1442,
    "Mobile": 1443,
    "optimiz": 1444,
    "optimized": 1445,
    "speeds": 1446,
    "Secure": 1447,
    "complexity": 1448,
    "du": 1449,
    "book": 1450,
    "channels": 1451,
    "study": 1452,
    "studies": 1453,
    "feature": 1454,
    "featured": 1455,
    "enc": 1456,
    "ency": 1457,
    "chatbot": 1458,
    "remo": 1459,
    "remote": 1460,
    "glo": 1461,
    "via": 1462,
    "cent": 1463,
    "centr": 1464,
    "centric": 1465,
    "Ind": 1466,
    "India": 1467,
    "like": 1468,
    "ht": 1469,
    "htt": 1470,
    "http": 1471,
    "https": 1472,
    "www": 1473,
    "typically": 1474,
    "reply": 1475,
    "minu": 1476,
    "minute": 1477,
    "scop": 1478,
    "scoping": 1479,
    "maint": 1480,
    "ilosophy": 1481,
    "cle": 1482,
    "clean": 1483,
    "fun": 1484,
    "funct": 1485,
    "functional": 1486,
    "state": 1487,
    "contact_": 1488,
    "contact_info": 1489,
    "Ch": 1490,
    "Channels": 1491,
    "Email": 1492,
    "supply": 1493,
    "primary": 1494,
    "eas": 1495,
    "easil": 1496,
    "easily": 1497,
    "serving": 1498,
    "globe": 1499,
    "also": 1500,
    "find": 1501,
    "check": 1502,
    "inquiries": 1503,
    "would": 1504,
    "visit": 1505,
    "schedu": 1506,
    "schedule": 1507,
    "call": 1508,
    "contract": 1509,
    "ts": 1510,
    "mainten": 1511,
    "maintenance": 1512,
    "Sh": 1513,
    "Shop": 1514,
    "ShopS": 1515,
    "ShopSm": 1516,
    "ShopSmart": 1517,
    "Refr": 1518,
    "Refres": 1519,
    "Refresh": 1520,
    "hourly": 1521,
    "cost": 1522,
    "row": 1523,
    "businesses": 1524,
    "provides": 1525,
    "isc": 1526,
    "ND": 1527,
    "NDAs": 1528,
    "startup": 1529,
    "startups": 1530,
    "sm": 1531,
    "small": 1532,
    "pres": 1533,
    "vision": 1534,
    "lon": 1535,
    "cat": 1536,
    "term": 1537,
    "Disc": 1538,
    "Disclo": 1539,
    "Disclosure": 1540,
    "Ag": 1541,
    "Agree": 1542,
    "Agreements": 1543,
    "prote": 1544,
    "protect": 1545,
    "IP": 1546,
    "customized": 1547,
    "quot": 1548,
    "For": 1549,
    "found": 1550,
    "real": 1551,
    "support_": 1552,
    "support_policy": 1553,
    "Sup": 1554,
    "Support": 1555,
    "perio": 1556,
    "period": 1557,
    "rang": 1558,
    "ranging": 1559,
    "rema": 1560,
    "remain": 1561,
    "agre": 1562,
    "agreed": 1563,
    "Sign": 1564,
    "Significant": 1565,
    "exp": 1566,
    "expans": 1567,
    "expansions": 1568,
    "quoted": 1569,
    "separ": 1570,
    "separate": 1571,
    "separately": 1572,
    "timelines": 1573,
    "revision": 1574,
    "constr": 1575,
    "constrain": 1576,
    "constraints": 1577,
    "policies": 1578,
    "guar": 1579,
    "guaran": 1580,
    "guarante": 1581,
    "guarantees": 1582,
    "dependable": 1583,
    "terms": 1584,
    "complete": 1585,
    "peac": 1586,
    "peace": 1587,
    "mind": 1588,
    "win": 1589,
    "windo": 1590,
    "window": 1591,
    "addr": 1592,
    "address": 1593,
    "adjust": 1594,
    "adjustments": 1595,
    "init": 1596,
    "initial": 1597,
    "fit": 1598,
    "Part": 1599,
    "Partial": 1600,
    "refunds": 1601,
    "progr": 1602,
    "progress": 1603,
    "stages": 1604,
    "ongoing": 1605,
    "updat": 1606,
    "updates": 1607,
    "plans": 1608,
    "150": 1609,
    "ome": 1610,
    "pricing_": 1611,
    "pricing_sign": 1612,
    "pricing_signal": 1613,
    "Start": 1614,
    "Starter": 1615,
    "Hour": 1616,
    "Hourly": 1617,
    "rate": 1618,
    "present": 1619,
    "tiers": 1620,
    "quotes": 1621,
    "option": 1622,
    "believ": 1623,
    "believes": 1624,
    "compe": 1625,
    "competit": 1626,
    "competitive": 1627,
    "outstand": 1628,
    "outstanding": 1629,
    "val": 1630,
    "value": 1631,
    "starter": 1632,
    "4500": 1633,
    "35": 1634,
    "65": 1635,
    "engineer": 1636,
    "engineering": 1637,
    "Bund": 1638,
    "Bundled": 1639,
    "needing": 1640,
    "multiple": 1641,
    "giv": 1642,
    "giving": 1643,
    "sav": 1644,
    "saving": 1645,
    "savings": 1646,
    "goals": 1647,
    "quote": 1648,
    "here": 1649,
    "that": 1650,
    "liable": 1651,
    "enter": 1652,
    "enterpr": 1653,
    "enterpris": 1654,
    "sof": 1655,
    "soft": 1656,
    "softw": 1657,
    "software": 1658,
    "ational": 1659,
    "admin": 1660,
    "long": 1661,
    "man": 1662,
    "intern": 1663,
    "internal": 1664,
    "retrieves": 1665,
    "reg": 1666,
    "regul": 1667,
    "regulat": 1668,
    "regulatory": 1669,
    "cla": 1670,
    "clauses": 1671,
    "answers": 1672,
    "store": 1673,
    "storefront": 1674,
    "featuring": 1675,
    "catal": 1676,
    "catalo": 1677,
    "catalogs": 1678,
    "bil": 1679,
    "billing": 1680,
    "payment": 1681,
    "fle": 1682,
    "flex": 1683,
    "flexib": 1684,
    "flexible": 1685,
    "rel": 1686,
    "data": 1687,
    "Str": 1688,
    "Struct": 1689,
    "Structur": 1690,
    "Structural": 1691,
    "styling": 1692,
    "foundations": 1693,
    "take": 1694,
    "Provides": 1695,
    "scripting": 1696,
    "logic": 1697,
    "DO": 1698,
    "DOM": 1699,
    "manip": 1700,
    "manipul": 1701,
    "manipulations": 1702,
    "brow": 1703,
    "browser": 1704,
    "browsers": 1705,
    "Category": 1706,
    "Descript": 1707,
    "Description": 1708,
    "Im": 1709,
    "Impact": 1710,
    "Save": 1711,
    "Saved": 1712,
    "legal": 1713,
    "12": 1714,
    "loo": 1715,
    "look": 1716,
    "lookup": 1717,
    "rese": 1718,
    "research": 1719,
    "suc": 1720,
    "success": 1721,
    "successfully": 1722,
    "delivered": 1723,
    "category": 1724,
    "following": 1725,
    "had": 1726,
    "maj": 1727,
    "major": 1728,
    "sim": 1729,
    "simil": 1730,
    "similar": 1731,
    "ideal": 1732,
    "ima": 1733,
    "image": 1734,
    "compo": 1735,
    "composit": 1736,
    "compositions": 1737,
    "lan": 1738,
    "langu": 1739,
    "language": 1740,
    "pipelines": 1741,
    "scrap": 1742,
    "scraping": 1743,
    "scripts": 1744,
    "Stand": 1745,
    "Standard": 1746,
    "Boosted": 1747,
    "sal": 1748,
    "sales": 1749,
    "by": 1750,
    "red": 1751,
    "reduced": 1752,
    "times": 1753,
    "secon": 1754,
    "second": 1755,
    "seconds": 1756,
    "enterprise": 1757,
    "gra": 1758,
    "grade": 1759,
    "microservices": 1760,
    "transaction": 1761,
    "kine": 1762,
    "kinetic": 1763,
    "motion": 1764,
    "anim": 1765,
    "animations": 1766,
    "Ut": 1767,
    "Util": 1768,
    "Utilized": 1769,
    "heav": 1770,
    "heavy": 1771,
    "mess": 1772,
    "messag": 1773,
    "messaging": 1774,
    "server": 1775,
    "toolkit": 1776,
    "audio": 1777,
    "mix": 1778,
    "mixing": 1779,
    "track": 1780,
    "logs": 1781,
    "Cre": 1782,
    "Creates": 1783,
    "compon": 1784,
    "component": 1785,
    "sing": 1786,
    "single": 1787,
    "NoSQL": 1788,
    "storage": 1789,
    "schema": 1790,
    "conf": 1791,
    "config": 1792,
    "configur": 1793,
    "configurations": 1794,
    "dynamic": 1795,
    "payload": 1796,
    "payloads": 1797,
    "Reliable": 1798,
    "relational": 1799,
    "transactional": 1800,
    "consist": 1801,
    "consistency": 1802,
    "structured": 1803,
    "tab": 1804,
    "tables": 1805,
    "Ad": 1806,
    "Adv": 1807,
    "Advan": 1808,
    "Advanced": 1809,
    "open": 1810,
    "source": 1811,
    "JS": 1812,
    "JSON": 1813,
    "querying": 1814,
    "geome": 1815,
    "geometric": 1816,
    "building": 1817,
    "asyn": 1818,
    "asynch": 1819,
    "asynchr": 1820,
    "asynchron": 1821,
    "asynchronous": 1822,
    "cards": 1823,
    "exam": 1824,
    "exampl": 1825,
    "examples": 1826,
    "where": 1827,
    "scor": 1828,
    "score": 1829,
    "orate": 1830,
    "est": 1831,
    "over": 1832,
    "belie": 1833,
    "believe": 1834,
    "consistent": 1835,
    "incor": 1836,
    "incorp": 1837,
    "incorporate": 1838,
    "interactions": 1839,
    "rig": 1840,
    "rigor": 1841,
    "rigorous": 1842,
    "access": 1843,
    "accessib": 1844,
    "accessibility": 1845,
    "philosophy": 1846,
    "ha": 1847,
    "set": 1848,
    "Ph": 1849,
    "Philosophy": 1850,
    "Case": 1851,
    "Plat": 1852,
    "Platform": 1853,
    "philosop": 1854,
    "philosoph": 1855,
    "philosophies": 1856,
    "tak": 1857,
    "takes": 1858,
    "imm": 1859,
    "immen": 1860,
    "immense": 1861,
    "pride": 1862,
    "delivering": 1863,
    "foc": 1864,
    "focuses": 1865,
    "aest": 1866,
    "aesthe": 1867,
    "aesthetics": 1868,
    "cohesive": 1869,
    "identity": 1870,
    "rebuilt": 1871,
    "portal": 1872,
    "overha": 1873,
    "overhaul": 1874,
    "resul": 1875,
    "resulted": 1876,
    "98": 1877,
    "100": 1878,
    "boosted": 1879,
    "conv": 1880,
    "convers": 1881,
    "conversion": 1882,
    "metric": 1883,
    "metrics": 1884,
    "significantly": 1885,
    "Check": 1886,
    "asset": 1887,
    "assets": 1888,
    "greeting": 1889,
    "respon": 1890,
    "respond": 1891,
    "editing": 1892,
    "ath": 1893,
    "past": 1894,
    "ca": 1895,
    "pop": 1896,
    "ick": 1897,
    "What": 1898,
    "agency": 1899,
    "grow": 1900,
    "come": 1901,
    "Hel": 1902,
    "premi": 1903,
    "intro": 1904,
    "introdu": 1905,
    "introduce": 1906,
    "Hello": 1907,
    "wel": 1908,
    "welcome": 1909,
    "premier": 1910,
    "cover": 1911,
    "autom": 1912,
    "automation": 1913,
    "read": 1914,
    "ready": 1915,
    "lau": 1916,
    "laun": 1917,
    "launch": 1918,
    "Wor": 1919,
    "allow": 1920,
    "mem": 1921,
    "memb": 1922,
    "members": 1923,
    "weath": 1924,
    "weather": 1925,
    "sto": 1926,
    "stock": 1927,
    "ime": 1928,
    "ister": 1929,
    "solve": 1930,
    "capital": 1931,
    "Fran": 1932,
    "France": 1933,
    "World": 1934,
    "Cup": 1935,
    "price": 1936,
    "bud": 1937,
    "budg": 1938,
    "budget": 1939,
    "rite": 1940,
    "poem": 1941,
    "buy": 1942,
    "estate": 1943,
    "reci": 1944,
    "recipe": 1945,
    "pasta": 1946,
    "founders": 1947,
    "market": 1948,
    "booking": 1949,
    "fl": 1950,
    "fligh": 1951,
    "flights": 1952,
    "Par": 1953,
    "Paris": 1954,
    "cry": 1955,
    "cryp": 1956,
    "crypto": 1957,
    "cryptoc": 1958,
    "cryptocur": 1959,
    "cryptocurr": 1960,
    "cryptocurrency": 1961,
    "loca": 1962,
    "located": 1963,
    "grav": 1964,
    "gravity": 1965,
    "foo": 1966,
    "food": 1967,
    "brands": 1968,
    "Prime": 1969,
    "Min": 1970,
    "Minister": 1971,
    "popular": 1972,
    "son": 1973,
    "songs": 1974,
    "instagram": 1975,
    "who": 1976,
    "best": 1977,
    "action": 1978,
    "mov": 1979,
    "movies": 1980,
    "quant": 1981,
    "quantum": 1982,
    "phy": 1983,
    "phys": 1984,
    "physic": 1985,
    "physics": 1986,
    "math": 1987,
    "home": 1988,
    "homework": 1989,
    "ba": 1990,
    "bake": 1991,
    "cake": 1992,
    "nda": 1993,
    "FI": 1994,
    "FIF": 1995,
    "FIFA": 1996,
    "Elon": 1997,
    "Mus": 1998,
    "Musk": 1999,
    "quick": 2000,
    "quickly": 2001,
    "reach": 2002,
    "mu": 2003,
    "much": 2004,
    "charge": 2005,
    "allowed": 2006,
    "Bit": 2007,
    "Bitco": 2008,
    "Bitcoin": 2009,
    "crick": 2010,
    "cricket": 2011,
    "write": 2012,
    "love": 2013,
    "hello": 2014,
    "hey": 2015,
    "goo": 2016,
    "good": 2017,
    "there": 2018,
    "fri": 2019,
    "friend": 2020,
    "inform": 2021,
    "information": 2022,
    "Tell": 2023,
    "hi": 2024,
    "hol": 2025,
    "hola": 2026,
    "whats": 2027,
    "even": 2028,
    "evening": 2029,
    "greetings": 2030,
    "after": 2031,
    "afterno": 2032,
    "afternoon": 2033,
    "mor": 2034,
    "morn": 2035,
    "morning": 2036,
    "don": 2037,
    "verif": 2038,
    "verifi": 2039,
    "verified": 2040,
    "To": 2041,
    "glob": 2042,
    "global": 2043,
    "mode": 2044,
    "20": 2045,
    "nov": 2046,
    "novat": 2047,
    "ence": 2048,
    "one": 2049,
    "roof": 2050,
    "mis": 2051,
    "miss": 2052,
    "affor": 2053,
    "afford": 2054,
    "affordable": 2055,
    "partn": 2056,
    "partners": 2057,
    "oper": 2058,
    "model": 2059,
    "globally": 2060,
    "consultations": 2061,
    "Free": 2062,
    "booked": 2063,
    "cal": 2064,
    "Do": 2065,
    "Word": 2066,
    "WordPr": 2067,
    "WordPress": 2068,
    "Yes": 2069,
    "Ho": 2070,
    "unique": 2071,
    "acy": 2072,
    "into": 2073,
    "Ne": 2074,
    "Who": 2075
  },
  "merges": [
    [
      "i",
      "n"
    ],
    [
      "o",
      "n"
    ],
    [
      "s",
      "t"
    ],
    [
      "e",
      "n"
    ],
    [
      "i",
      "t"
    ],
    [
      "a",
      "n"
    ],
    [
      "e",
      "r"
    ],
    [
      "e",
      "s"
    ],
    [
      "o",
      "u"
    ],
    [
      "o",
      "r"
    ],
    [
      "r",
      "e"
    ],
    [
      "in",
      "g"
    ],
    [
      "t",
      "e"
    ],
    [
      "\n",
      "\n"
    ],
    [
      "u",
      "s"
    ],
    [
      "i",
      "c"
    ],
    [
      "d",
      "e"
    ],
    [
      "h",
      "e"
    ],
    [
      "i",
      "on"
    ],
    [
      "an",
      "d"
    ],
    [
      "a",
      "l"
    ],
    [
      "a",
      "t"
    ],
    [
      "l",
      "o"
    ],
    [
      "en",
      "t"
    ],
    [
      "t",
      "he"
    ],
    [
      "c",
      "t"
    ],
    [
      "a",
      "r"
    ],
    [
      "k",
      "it"
    ],
    [
      "a",
      "s"
    ],
    [
      "en",
      "kit"
    ],
    [
      "r",
      "o"
    ],
    [
      "i",
      "st"
    ],
    [
      "i",
      "g"
    ],
    [
      "i",
      "s"
    ],
    [
      "t",
      "o"
    ],
    [
      "l",
      "e"
    ],
    [
      "c",
      "h"
    ],
    [
      "v",
      "e"
    ],
    [
      "A",
      "I"
    ],
    [
      "o",
      "l"
    ],
    [
      "ion",
      "s"
    ],
    [
      "G",
      "enkit"
    ],
    [
      "x",
      "t"
    ],
    [
      "ou",
      "r"
    ],
    [
      "o",
      "m"
    ],
    [
      "s",
      "er"
    ],
    [
      "on",
      "te"
    ],
    [
      "onte",
      "xt"
    ],
    [
      "o",
      "f"
    ],
    [
      "f",
      "or"
    ],
    [
      "i",
      "l"
    ],
    [
      "an",
      "t"
    ],
    [
      "i",
      "es"
    ],
    [
      "p",
      "ro"
    ],
    [
      "e",
      "d"
    ],
    [
      "s",
      "u"
    ],
    [
      "c",
      "l"
    ],
    [
      "a",
      "b"
    ],
    [
      "n",
      "o"
    ],
    [
      "a",
      "ct"
    ],
    [
      "v",
      "i"
    ],
    [
      "u",
      "e"
    ],
    [
      "s",
      "ist"
    ],
    [
      "l",
      "y"
    ],
    [
      "f",
      "ic"
    ],
    [
      "te",
      "ch"
    ],
    [
      "u",
      "st"
    ],
    [
      "ue",
      "st"
    ],
    [
      "n",
      "s"
    ],
    [
      "w",
      "er"
    ],
    [
      "or",
      "y"
    ],
    [
      "sist",
      "ant"
    ],
    [
      "ser",
      "v"
    ],
    [
      "ou",
      "t"
    ],
    [
      "m",
      "a"
    ],
    [
      "in",
      "e"
    ],
    [
      "w",
      "e"
    ],
    [
      "lo",
      "g"
    ],
    [
      "us",
      "ing"
    ],
    [
      "serv",
      "ic"
    ],
    [
      "n",
      "t"
    ],
    [
      "fic",
      "i"
    ],
    [
      "A",
      "ns"
    ],
    [
      "Ans",
      "wer"
    ],
    [
      "C",
      "ontext"
    ],
    [
      "ist",
      "ory"
    ],
    [
      "R",
      "e"
    ],
    [
      "a",
      "re"
    ],
    [
      "m",
      "ent"
    ],
    [
      "it",
      "e"
    ],
    [
      "ve",
      "lo"
    ],
    [
      "velo",
      "p"
    ],
    [
      "a",
      "c"
    ],
    [
      "c",
      "om"
    ],
    [
      "es",
      "s"
    ],
    [
      "d",
      "o"
    ],
    [
      "a",
      "g"
    ],
    [
      "no",
      "log"
    ],
    [
      "i",
      "ve"
    ],
    [
      "a",
      "m"
    ],
    [
      "u",
      "r"
    ],
    [
      "velop",
      "ment"
    ],
    [
      "b",
      "e"
    ],
    [
      "N",
      "o"
    ],
    [
      "ig",
      "n"
    ],
    [
      "i",
      "m"
    ],
    [
      "t",
      "h"
    ],
    [
      "e",
      "ct"
    ],
    [
      "tech",
      "nolog"
    ],
    [
      "p",
      "l"
    ],
    [
      "en",
      "d"
    ],
    [
      "I",
      "f"
    ],
    [
      "vi",
      "de"
    ],
    [
      "m",
      "o"
    ],
    [
      "d",
      "es"
    ],
    [
      "p",
      "ol"
    ],
    [
      "y",
      "ou"
    ],
    [
      "u",
      "l"
    ],
    [
      "p",
      "e"
    ],
    [
      "t",
      "ions"
    ],
    [
      "ac",
      "k"
    ],
    [
      "e",
      "m"
    ],
    [
      "it",
      "al"
    ],
    [
      "ab",
      "out"
    ],
    [
      "d",
      "ig"
    ],
    [
      "dig",
      "ital"
    ],
    [
      "Y",
      "ou"
    ],
    [
      "q",
      "uest"
    ],
    [
      "quest",
      "ions"
    ],
    [
      "ma",
      "il"
    ],
    [
      "A",
      "s"
    ],
    [
      "a",
      "p"
    ],
    [
      "c",
      "ontext"
    ],
    [
      "pol",
      "ite"
    ],
    [
      "polite",
      "ly"
    ],
    [
      "j",
      "ect"
    ],
    [
      "servic",
      "es"
    ],
    [
      "ag",
      "e"
    ],
    [
      "y",
      "st"
    ],
    [
      "yst",
      "em"
    ],
    [
      "w",
      "or"
    ],
    [
      "As",
      "sistant"
    ],
    [
      "t",
      "r"
    ],
    [
      "A",
      "do"
    ],
    [
      "Ado",
      "be"
    ],
    [
      "us",
      "er"
    ],
    [
      "act",
      "s"
    ],
    [
      "g",
      "enkit"
    ],
    [
      "a",
      "in"
    ],
    [
      "ou",
      "s"
    ],
    [
      "or",
      "t"
    ],
    [
      "s",
      "ol"
    ],
    [
      "W",
      "e"
    ],
    [
      "O",
      "N"
    ],
    [
      "T",
      "he"
    ],
    [
      "sol",
      "u"
    ],
    [
      "solu",
      "tions"
    ],
    [
      "p",
      "re"
    ],
    [
      "l",
      "i"
    ],
    [
      "as",
      "sistant"
    ],
    [
      "pre",
      "vi"
    ],
    [
      "previ",
      "ous"
    ],
    [
      "U",
      "ser"
    ],
    [
      "it",
      "s"
    ],
    [
      "ab",
      "le"
    ],
    [
      "pro",
      "vide"
    ],
    [
      "S",
      "ystem"
    ],
    [
      "of",
      "fici"
    ],
    [
      "offici",
      "al"
    ],
    [
      "ON",
      "L"
    ],
    [
      "ONL",
      "Y"
    ],
    [
      "f",
      "acts"
    ],
    [
      "provide",
      "d"
    ],
    [
      "in",
      "su"
    ],
    [
      "insu",
      "f"
    ],
    [
      "insuf",
      "fici"
    ],
    [
      "insuffici",
      "ent"
    ],
    [
      "de",
      "cl"
    ],
    [
      "decl",
      "ine"
    ],
    [
      "I",
      "nt"
    ],
    [
      "Int",
      "ent"
    ],
    [
      "E",
      "nt"
    ],
    [
      "Ent",
      "it"
    ],
    [
      "Entit",
      "ies"
    ],
    [
      "H",
      "istory"
    ],
    [
      "h",
      "istory"
    ],
    [
      "Q",
      "uest"
    ],
    [
      "Quest",
      "ion"
    ],
    [
      "Re",
      "as"
    ],
    [
      "Reas",
      "on"
    ],
    [
      "Reason",
      "ing"
    ],
    [
      "wor",
      "k"
    ],
    [
      "p",
      "ort"
    ],
    [
      "o",
      "p"
    ],
    [
      "des",
      "ign"
    ],
    [
      "at",
      "ion"
    ],
    [
      "er",
      "s"
    ],
    [
      "n",
      "e"
    ],
    [
      "u",
      "re"
    ],
    [
      "de",
      "velopment"
    ],
    [
      "c",
      "on"
    ],
    [
      "e",
      "x"
    ],
    [
      "i",
      "de"
    ],
    [
      "ar",
      "t"
    ],
    [
      "mo",
      "d"
    ],
    [
      "ar",
      "d"
    ],
    [
      "a",
      "d"
    ],
    [
      "lo",
      "w"
    ],
    [
      "pro",
      "ject"
    ],
    [
      "v",
      "er"
    ],
    [
      "g",
      "mail"
    ],
    [
      "servic",
      "e"
    ],
    [
      "as",
      "e"
    ],
    [
      "s",
      "c"
    ],
    [
      "m",
      "ust"
    ],
    [
      "b",
      "us"
    ],
    [
      "bus",
      "in"
    ],
    [
      "busin",
      "ess"
    ],
    [
      "n",
      "d"
    ],
    [
      "t",
      "im"
    ],
    [
      "a",
      "v"
    ],
    [
      "P",
      "ro"
    ],
    [
      "r",
      "and"
    ],
    [
      "h",
      "at"
    ],
    [
      "st",
      "and"
    ],
    [
      "f",
      "r"
    ],
    [
      "technolog",
      "y"
    ],
    [
      "k",
      "ing"
    ],
    [
      "o",
      "t"
    ],
    [
      "l",
      "l"
    ],
    [
      "e",
      "t"
    ],
    [
      "we",
      "b"
    ],
    [
      "q",
      "u"
    ],
    [
      "ust",
      "om"
    ],
    [
      "i",
      "f"
    ],
    [
      "l",
      "ine"
    ],
    [
      "stand",
      "ard"
    ],
    [
      "p",
      "le"
    ],
    [
      "in",
      "cl"
    ],
    [
      "incl",
      "u"
    ],
    [
      "of",
      "f"
    ],
    [
      "r",
      "es"
    ],
    [
      "y",
      "our"
    ],
    [
      "av",
      "a"
    ],
    [
      "no",
      "w"
    ],
    [
      "ig",
      "h"
    ],
    [
      "D",
      "e"
    ],
    [
      "de",
      "p"
    ],
    [
      "g",
      "o"
    ],
    [
      "i",
      "z"
    ],
    [
      "s",
      "e"
    ],
    [
      "ar",
      "ch"
    ],
    [
      "c",
      "ustom"
    ],
    [
      "t",
      "act"
    ],
    [
      "v",
      "is"
    ],
    [
      "st",
      "ack"
    ],
    [
      "technolog",
      "ies"
    ],
    [
      "c",
      "re"
    ],
    [
      "on",
      "s"
    ],
    [
      "su",
      "p"
    ],
    [
      "t",
      "er"
    ],
    [
      "g",
      "r"
    ],
    [
      "t",
      "y"
    ],
    [
      "h",
      "o"
    ],
    [
      "th",
      "is"
    ],
    [
      "as",
      "king"
    ],
    [
      "de",
      "li"
    ],
    [
      "deli",
      "ver"
    ],
    [
      "b",
      "ot"
    ],
    [
      "p",
      "r"
    ],
    [
      "a",
      "st"
    ],
    [
      "A",
      "P"
    ],
    [
      "AP",
      "I"
    ],
    [
      "De",
      "velopment"
    ],
    [
      "res",
      "p"
    ],
    [
      "sup",
      "port"
    ],
    [
      "S",
      "Q"
    ],
    [
      "SQ",
      "L"
    ],
    [
      "c",
      "an"
    ],
    [
      "c",
      "e"
    ],
    [
      "cre",
      "at"
    ],
    [
      "ion",
      "al"
    ],
    [
      "resp",
      "ons"
    ],
    [
      "respons",
      "ive"
    ],
    [
      "s",
      "ide"
    ],
    [
      "ust",
      "r"
    ],
    [
      "m",
      "e"
    ],
    [
      "u",
      "ct"
    ],
    [
      "s",
      "ite"
    ],
    [
      "k",
      "now"
    ],
    [
      "fr",
      "am"
    ],
    [
      "h",
      "igh"
    ],
    [
      "ty",
      "p"
    ],
    [
      "ap",
      "pl"
    ],
    [
      "appl",
      "ic"
    ],
    [
      "mod",
      "er"
    ],
    [
      "moder",
      "n"
    ],
    [
      "c",
      "ure"
    ],
    [
      "f",
      "ol"
    ],
    [
      "y",
      "th"
    ],
    [
      "w",
      "hat"
    ],
    [
      "w",
      "it"
    ],
    [
      "wit",
      "h"
    ],
    [
      "an",
      "s"
    ],
    [
      "a",
      "y"
    ],
    [
      "O",
      "ur"
    ],
    [
      "i",
      "p"
    ],
    [
      "ou",
      "nd"
    ],
    [
      "0",
      "0"
    ],
    [
      "ap",
      "h"
    ],
    [
      "work",
      "s"
    ],
    [
      "pl",
      "ain"
    ],
    [
      "o",
      "st"
    ],
    [
      "F",
      "ast"
    ],
    [
      "en",
      "e"
    ],
    [
      "ene",
      "f"
    ],
    [
      "enef",
      "its"
    ],
    [
      "ex",
      "plain"
    ],
    [
      "to",
      "ol"
    ],
    [
      "f",
      "e"
    ],
    [
      "S",
      "e"
    ],
    [
      "le",
      "d"
    ],
    [
      "it",
      "y"
    ],
    [
      "creat",
      "ive"
    ],
    [
      "off",
      "er"
    ],
    [
      "us",
      "ed"
    ],
    [
      "b",
      "rand"
    ],
    [
      "at",
      "ions"
    ],
    [
      "f",
      "ul"
    ],
    [
      "c",
      "or"
    ],
    [
      "su",
      "re"
    ],
    [
      "F",
      "ig"
    ],
    [
      "Fig",
      "ma"
    ],
    [
      "ne",
      "ed"
    ],
    [
      "c",
      "i"
    ],
    [
      "w",
      "ant"
    ],
    [
      "u",
      "al"
    ],
    [
      "se",
      "cure"
    ],
    [
      "lo",
      "y"
    ],
    [
      "f",
      "ess"
    ],
    [
      "fess",
      "ional"
    ],
    [
      "d",
      "ing"
    ],
    [
      "ur",
      "n"
    ],
    [
      "urn",
      "ar"
    ],
    [
      "urnar",
      "ound"
    ],
    [
      "tool",
      "s"
    ],
    [
      "om",
      "ain"
    ],
    [
      "al",
      "l"
    ],
    [
      "us",
      "es"
    ],
    [
      "work",
      "f"
    ],
    [
      "workf",
      "low"
    ],
    [
      "fol",
      "low"
    ],
    [
      "fram",
      "e"
    ],
    [
      "frame",
      "works"
    ],
    [
      "J",
      "ava"
    ],
    [
      "s",
      "h"
    ],
    [
      "S",
      "E"
    ],
    [
      "SE",
      "O"
    ],
    [
      "an",
      "n"
    ],
    [
      "Fast",
      "API"
    ],
    [
      "re",
      "e"
    ],
    [
      "tim",
      "iz"
    ],
    [
      "en",
      "sure"
    ],
    [
      "ad",
      "j"
    ],
    [
      "a",
      "ch"
    ],
    [
      "c",
      "r"
    ],
    [
      "p",
      "i"
    ],
    [
      "pi",
      "pe"
    ],
    [
      "high",
      "ly"
    ],
    [
      "Re",
      "ach"
    ],
    [
      "inclu",
      "de"
    ],
    [
      "C",
      "on"
    ],
    [
      "standard",
      "s"
    ],
    [
      "us",
      "e"
    ],
    [
      "ip",
      "t"
    ],
    [
      "o",
      "o"
    ],
    [
      "com",
      "m"
    ],
    [
      "s",
      "pe"
    ],
    [
      "st",
      "art"
    ],
    [
      "P",
      "yth"
    ],
    [
      "Pyth",
      "on"
    ],
    [
      "e",
      "y"
    ],
    [
      "d",
      "omain"
    ],
    [
      "tim",
      "e"
    ],
    [
      "d",
      "at"
    ],
    [
      "ul",
      "ar"
    ],
    [
      "tr",
      "ans"
    ],
    [
      "vide",
      "o"
    ],
    [
      "ic",
      "al"
    ],
    [
      "p",
      "art"
    ],
    [
      "te",
      "d"
    ],
    [
      "de",
      "velop"
    ],
    [
      "dep",
      "loy"
    ],
    [
      "cl",
      "ar"
    ],
    [
      "clar",
      "if"
    ],
    [
      "clarif",
      "y"
    ],
    [
      "ro",
      "le"
    ],
    [
      "us",
      "age"
    ],
    [
      "in",
      "side"
    ],
    [
      "pipe",
      "line"
    ],
    [
      "cor",
      "e"
    ],
    [
      "B",
      "y"
    ],
    [
      "deliver",
      "ies"
    ],
    [
      "mod",
      "ular"
    ],
    [
      "ful",
      "l"
    ],
    [
      "develop",
      "ers"
    ],
    [
      "s",
      "k"
    ],
    [
      "sk",
      "il"
    ],
    [
      "skil",
      "led"
    ],
    [
      "adj",
      "ac"
    ],
    [
      "adjac",
      "ent"
    ],
    [
      "L",
      "et"
    ],
    [
      "ne",
      "xt"
    ],
    [
      "applic",
      "ation"
    ],
    [
      "a",
      "il"
    ],
    [
      "ail",
      "s"
    ],
    [
      "M",
      "y"
    ],
    [
      "My",
      "SQL"
    ],
    [
      "We",
      "b"
    ],
    [
      "b",
      "u"
    ],
    [
      "fe",
      "at"
    ],
    [
      "Se",
      "arch"
    ],
    [
      "timiz",
      "ation"
    ],
    [
      "ho",
      "w"
    ],
    [
      "in",
      "d"
    ],
    [
      "d",
      "ay"
    ],
    [
      "aph",
      "ic"
    ],
    [
      "pr",
      "ic"
    ],
    [
      "ci",
      "al"
    ],
    [
      "Re",
      "act"
    ],
    [
      "I",
      "ll"
    ],
    [
      "Ill",
      "ustr"
    ],
    [
      "Illustr",
      "at"
    ],
    [
      "Illustrat",
      "or"
    ],
    [
      "Con",
      "tact"
    ],
    [
      "te",
      "am"
    ],
    [
      "pric",
      "ing"
    ],
    [
      "b",
      "as"
    ],
    [
      "bas",
      "ed"
    ],
    [
      "h",
      "our"
    ],
    [
      "B",
      "rand"
    ],
    [
      "ple",
      "ase"
    ],
    [
      "con",
      "tact"
    ],
    [
      "p",
      "er"
    ],
    [
      "g",
      "ine"
    ],
    [
      "Web",
      "site"
    ],
    [
      "m",
      "i"
    ],
    [
      "er",
      "e"
    ],
    [
      "f",
      "ter"
    ],
    [
      "sc",
      "o"
    ],
    [
      "sco",
      "pe"
    ],
    [
      "A",
      "fter"
    ],
    [
      "p",
      "age"
    ],
    [
      "inclu",
      "ding"
    ],
    [
      "ur",
      "es"
    ],
    [
      "G",
      "oo"
    ],
    [
      "Goo",
      "g"
    ],
    [
      "Goog",
      "le"
    ],
    [
      "No",
      "de"
    ],
    [
      "j",
      "s"
    ],
    [
      "H",
      "T"
    ],
    [
      "HT",
      "M"
    ],
    [
      "HTM",
      "L"
    ],
    [
      "C",
      "S"
    ],
    [
      "CS",
      "S"
    ],
    [
      "K",
      "ey"
    ],
    [
      "U",
      "I"
    ],
    [
      "cr",
      "ipt"
    ],
    [
      "D",
      "j"
    ],
    [
      "Dj",
      "an"
    ],
    [
      "Djan",
      "go"
    ],
    [
      "a",
      "te"
    ],
    [
      "te",
      "ll"
    ],
    [
      "typ",
      "ical"
    ],
    [
      "qu",
      "i"
    ],
    [
      "in",
      "qui"
    ],
    [
      "inqui",
      "r"
    ],
    [
      "f",
      "ree"
    ],
    [
      "de",
      "t"
    ],
    [
      "det",
      "ails"
    ],
    [
      "a",
      "ve"
    ],
    [
      "b",
      "ack"
    ],
    [
      "back",
      "end"
    ],
    [
      "re",
      "comm"
    ],
    [
      "recomm",
      "end"
    ],
    [
      "mo",
      "st"
    ],
    [
      "su",
      "it"
    ],
    [
      "suit",
      "able"
    ],
    [
      "st",
      "r"
    ],
    [
      "T",
      "e"
    ],
    [
      "cl",
      "i"
    ],
    [
      "cli",
      "ent"
    ],
    [
      "pro",
      "d"
    ],
    [
      "prod",
      "uct"
    ],
    [
      "Te",
      "ch"
    ],
    [
      "Tech",
      "nolog"
    ],
    [
      "Technolog",
      "ies"
    ],
    [
      "b",
      "enefits"
    ],
    [
      "Pro",
      "ject"
    ],
    [
      "time",
      "line"
    ],
    [
      "pl",
      "ann"
    ],
    [
      "plann",
      "ing"
    ],
    [
      "d",
      "i"
    ],
    [
      "we",
      "e"
    ],
    [
      "wee",
      "k"
    ],
    [
      "p",
      "ack"
    ],
    [
      "vis",
      "ions"
    ],
    [
      "dat",
      "ab"
    ],
    [
      "ava",
      "il"
    ],
    [
      "avail",
      "able"
    ],
    [
      "a",
      "u"
    ],
    [
      "vis",
      "ual"
    ],
    [
      "com",
      "ple"
    ],
    [
      "re",
      "f"
    ],
    [
      "5",
      "00"
    ],
    [
      "g",
      "u"
    ],
    [
      "u",
      "nd"
    ],
    [
      "in",
      "ter"
    ],
    [
      "HTML",
      "5"
    ],
    [
      "CSS",
      "3"
    ],
    [
      "P",
      "ho"
    ],
    [
      "Pho",
      "to"
    ],
    [
      "Photo",
      "sh"
    ],
    [
      "Photosh",
      "op"
    ],
    [
      "day",
      "s"
    ],
    [
      "P",
      "re"
    ],
    [
      "Pre",
      "mi"
    ],
    [
      "Premi",
      "ere"
    ],
    [
      "E",
      "f"
    ],
    [
      "Ef",
      "f"
    ],
    [
      "Eff",
      "ect"
    ],
    [
      "Effect",
      "s"
    ],
    [
      "Java",
      "S"
    ],
    [
      "JavaS",
      "cript"
    ],
    [
      "C",
      "hat"
    ],
    [
      "Chat",
      "bot"
    ],
    [
      "et",
      "ing"
    ],
    [
      "for",
      "m"
    ],
    [
      "e",
      "mail"
    ],
    [
      "log",
      "o"
    ],
    [
      "g",
      "e"
    ],
    [
      "com",
      "p"
    ],
    [
      "s",
      "o"
    ],
    [
      "ag",
      "es"
    ],
    [
      "brand",
      "ing"
    ],
    [
      "h",
      "ave"
    ],
    [
      "m",
      "ar"
    ],
    [
      "mar",
      "k"
    ],
    [
      "D",
      "es"
    ],
    [
      "dep",
      "end"
    ],
    [
      "on",
      "go"
    ],
    [
      "mark",
      "eting"
    ],
    [
      "s",
      "it"
    ],
    [
      "t",
      "i"
    ],
    [
      "product",
      "ion"
    ],
    [
      "bot",
      "s"
    ],
    [
      "Pro",
      "fessional"
    ],
    [
      "B",
      "enefits"
    ],
    [
      "T",
      "urnaround"
    ],
    [
      "inquir",
      "ing"
    ],
    [
      "off",
      "ers"
    ],
    [
      "pro",
      "fessional"
    ],
    [
      "le",
      "ver"
    ],
    [
      "lever",
      "age"
    ],
    [
      "ind",
      "ustr"
    ],
    [
      "industr",
      "y"
    ],
    [
      "li",
      "b"
    ],
    [
      "lib",
      "r"
    ],
    [
      "libr",
      "ar"
    ],
    [
      "librar",
      "ies"
    ],
    [
      "feat",
      "ures"
    ],
    [
      "Project",
      "s"
    ],
    [
      "t",
      "urnaround"
    ],
    [
      "need",
      "s"
    ],
    [
      "re",
      "ct"
    ],
    [
      "creative",
      "_"
    ],
    [
      "creative_",
      "tools"
    ],
    [
      "week",
      "s"
    ],
    [
      "str",
      "uct"
    ],
    [
      "struct",
      "ure"
    ],
    [
      "web",
      "site"
    ],
    [
      "d",
      "ent"
    ],
    [
      "dent",
      "ity"
    ],
    [
      "er",
      "ce"
    ],
    [
      "N",
      "on"
    ],
    [
      "u",
      "p"
    ],
    [
      "r",
      "an"
    ],
    [
      "comple",
      "x"
    ],
    [
      "p",
      "ar"
    ],
    [
      "im",
      "ar"
    ],
    [
      "imar",
      "y"
    ],
    [
      "au",
      "to"
    ],
    [
      "it",
      "ing"
    ],
    [
      "g",
      "re"
    ],
    [
      "l",
      "s"
    ],
    [
      "an",
      "ce"
    ],
    [
      "ur",
      "ing"
    ],
    [
      "U",
      "X"
    ],
    [
      "bu",
      "il"
    ],
    [
      "auto",
      "ma"
    ],
    [
      "automa",
      "ted"
    ],
    [
      "s",
      "ign"
    ],
    [
      "I",
      "n"
    ],
    [
      "all",
      "s"
    ],
    [
      "arch",
      "ite"
    ],
    [
      "archite",
      "ct"
    ],
    [
      "logo",
      "s"
    ],
    [
      "st",
      "or"
    ],
    [
      "qu",
      "er"
    ],
    [
      "quer",
      "y"
    ],
    [
      "f",
      "alls"
    ],
    [
      "h",
      "y"
    ],
    [
      "f",
      "o"
    ],
    [
      "C",
      "om"
    ],
    [
      "l",
      "and"
    ],
    [
      "land",
      "ing"
    ],
    [
      "G",
      "r"
    ],
    [
      "Gr",
      "aphic"
    ],
    [
      "Des",
      "ign"
    ],
    [
      "V",
      "ide"
    ],
    [
      "Vide",
      "o"
    ],
    [
      "E",
      "d"
    ],
    [
      "Ed",
      "iting"
    ],
    [
      "E",
      "n"
    ],
    [
      "En",
      "gine"
    ],
    [
      "O",
      "p"
    ],
    [
      "Op",
      "timization"
    ],
    [
      "Brand",
      "ing"
    ],
    [
      "V",
      "is"
    ],
    [
      "Vis",
      "ual"
    ],
    [
      "I",
      "dentity"
    ],
    [
      "he",
      "l"
    ],
    [
      "i",
      "a"
    ],
    [
      "sit",
      "es"
    ],
    [
      "ig",
      "ns"
    ],
    [
      "ment",
      "s"
    ],
    [
      "g",
      "s"
    ],
    [
      "web",
      "sites"
    ],
    [
      "fr",
      "on"
    ],
    [
      "fron",
      "t"
    ],
    [
      "p",
      "ost"
    ],
    [
      "so",
      "cial"
    ],
    [
      "design",
      "ed"
    ],
    [
      "le",
      "ar"
    ],
    [
      "depend",
      "ing"
    ],
    [
      "M",
      "ongo"
    ],
    [
      "Mongo",
      "D"
    ],
    [
      "MongoD",
      "B"
    ],
    [
      "P",
      "ost"
    ],
    [
      "Post",
      "gre"
    ],
    [
      "Postgre",
      "SQL"
    ],
    [
      "hel",
      "p"
    ],
    [
      "e",
      "v"
    ],
    [
      "ul",
      "ti"
    ],
    [
      "l",
      "in"
    ],
    [
      "lin",
      "es"
    ],
    [
      "u",
      "n"
    ],
    [
      "applic",
      "ations"
    ],
    [
      "at",
      "es"
    ],
    [
      "l",
      "ing"
    ],
    [
      "typ",
      "o"
    ],
    [
      "typo",
      "gr"
    ],
    [
      "typogr",
      "aph"
    ],
    [
      "typograph",
      "y"
    ],
    [
      "p",
      "h"
    ],
    [
      "y",
      "n"
    ],
    [
      "p",
      "act"
    ],
    [
      "c",
      "ed"
    ],
    [
      "lo",
      "ad"
    ],
    [
      "con",
      "tr"
    ],
    [
      "re",
      "visions"
    ],
    [
      "l",
      "d"
    ],
    [
      "e",
      "l"
    ],
    [
      "Non",
      "e"
    ],
    [
      "m",
      "y"
    ],
    [
      "op",
      "tions"
    ],
    [
      "P",
      "r"
    ],
    [
      "pol",
      "ic"
    ],
    [
      "in",
      "fo"
    ],
    [
      "g",
      "al"
    ],
    [
      "pack",
      "age"
    ],
    [
      "d",
      "uring"
    ],
    [
      "start",
      "s"
    ],
    [
      "trans",
      "par"
    ],
    [
      "transpar",
      "ent"
    ],
    [
      "ou",
      "ld"
    ],
    [
      "c",
      "o"
    ],
    [
      "an",
      "y"
    ],
    [
      "comp",
      "any"
    ],
    [
      "to",
      "p"
    ],
    [
      "top",
      "ic"
    ],
    [
      "project",
      "s"
    ],
    [
      "a",
      "f"
    ],
    [
      "iz",
      "e"
    ],
    [
      "spe",
      "cial"
    ],
    [
      "H",
      "igh"
    ],
    [
      "the",
      "m"
    ],
    [
      "special",
      "ize"
    ],
    [
      "ol",
      "or"
    ],
    [
      "op",
      "timization"
    ],
    [
      "tr",
      "af"
    ],
    [
      "traf",
      "fic"
    ],
    [
      "ran",
      "king"
    ],
    [
      "ranking",
      "s"
    ],
    [
      "f",
      "i"
    ],
    [
      "fi",
      "x"
    ],
    [
      "buil",
      "t"
    ],
    [
      "port",
      "s"
    ],
    [
      "out",
      "_"
    ],
    [
      "out_",
      "of"
    ],
    [
      "out_of",
      "_"
    ],
    [
      "out_of_",
      "domain"
    ],
    [
      "out",
      "side"
    ],
    [
      "ref",
      "use"
    ],
    [
      "re",
      "di"
    ],
    [
      "redi",
      "rect"
    ],
    [
      "ex",
      "cl"
    ],
    [
      "excl",
      "us"
    ],
    [
      "exclus",
      "ive"
    ],
    [
      "exclusive",
      "ly"
    ],
    [
      "as",
      "sist"
    ],
    [
      "no",
      "t"
    ],
    [
      "P",
      "le"
    ],
    [
      "Ple",
      "ase"
    ],
    [
      "fe",
      "el"
    ],
    [
      "as",
      "k"
    ],
    [
      "an",
      "yth"
    ],
    [
      "anyth",
      "ing"
    ],
    [
      "t",
      "ic"
    ],
    [
      "wor",
      "d"
    ],
    [
      "b",
      "i"
    ],
    [
      "bi",
      "le"
    ],
    [
      "Pr",
      "imary"
    ],
    [
      "custom",
      "er"
    ],
    [
      "4",
      "5"
    ],
    [
      "in",
      "t"
    ],
    [
      "gr",
      "aphic"
    ],
    [
      "client",
      "s"
    ],
    [
      "per",
      "form"
    ],
    [
      "perform",
      "ance"
    ],
    [
      "do",
      "es"
    ],
    [
      "s",
      "ystem"
    ],
    [
      "i",
      "o"
    ],
    [
      "ch",
      "at"
    ],
    [
      "2",
      "4"
    ],
    [
      "wer",
      "s"
    ],
    [
      "A",
      "ll"
    ],
    [
      "front",
      "end"
    ],
    [
      "sc",
      "r"
    ],
    [
      "tr",
      "ue"
    ],
    [
      "i",
      "fic"
    ],
    [
      "ific",
      "ant"
    ],
    [
      "st",
      "u"
    ],
    [
      "stu",
      "d"
    ],
    [
      "datab",
      "ase"
    ],
    [
      "datab",
      "as"
    ],
    [
      "databas",
      "es"
    ],
    [
      "con",
      "su"
    ],
    [
      "consu",
      "l"
    ],
    [
      "consul",
      "t"
    ],
    [
      "i",
      "v"
    ],
    [
      "al",
      "s"
    ],
    [
      "en",
      "gine"
    ],
    [
      "d",
      "r"
    ],
    [
      "bu",
      "gs"
    ],
    [
      "ag",
      "r"
    ],
    [
      "consult",
      "ation"
    ],
    [
      "r",
      "ul"
    ],
    [
      "rul",
      "es"
    ],
    [
      "t",
      "it"
    ],
    [
      "m",
      "on"
    ],
    [
      "mon",
      "th"
    ],
    [
      "an",
      "ne"
    ],
    [
      "anne",
      "ls"
    ],
    [
      "st",
      "agr"
    ],
    [
      "stagr",
      "am"
    ],
    [
      "f",
      "ro"
    ],
    [
      "fro",
      "m"
    ],
    [
      "in",
      "te"
    ],
    [
      "inte",
      "gr"
    ],
    [
      "w",
      "w"
    ],
    [
      "k",
      "e"
    ],
    [
      "in",
      "tell"
    ],
    [
      "intell",
      "ig"
    ],
    [
      "intellig",
      "ent"
    ],
    [
      "integr",
      "ations"
    ],
    [
      "ro",
      "b"
    ],
    [
      "rob",
      "ust"
    ],
    [
      "p",
      "ly"
    ],
    [
      "st",
      "y"
    ],
    [
      "f",
      "ly"
    ],
    [
      "fly",
      "ers"
    ],
    [
      "m",
      "ed"
    ],
    [
      "med",
      "ia"
    ],
    [
      "A",
      "n"
    ],
    [
      "re",
      "tr"
    ],
    [
      "retr",
      "i"
    ],
    [
      "retri",
      "ev"
    ],
    [
      "P",
      "y"
    ],
    [
      "Py",
      "T"
    ],
    [
      "PyT",
      "or"
    ],
    [
      "PyTor",
      "ch"
    ],
    [
      "l",
      "ess"
    ],
    [
      "inter",
      "act"
    ],
    [
      "E",
      "x"
    ],
    [
      "w",
      "hy"
    ],
    [
      "our",
      "ce"
    ],
    [
      "yn",
      "am"
    ],
    [
      "ynam",
      "ic"
    ],
    [
      "trans",
      "it"
    ],
    [
      "transit",
      "ions"
    ],
    [
      "di",
      "o"
    ],
    [
      "l",
      "es"
    ],
    [
      "spe",
      "ci"
    ],
    [
      "speci",
      "fic"
    ],
    [
      "im",
      "pact"
    ],
    [
      "architect",
      "ure"
    ],
    [
      "In",
      "stagram"
    ],
    [
      "G",
      "it"
    ],
    [
      "Git",
      "H"
    ],
    [
      "GitH",
      "u"
    ],
    [
      "GitHu",
      "b"
    ],
    [
      "c",
      "ard"
    ],
    [
      "u",
      "ced"
    ],
    [
      "Ex",
      "pr"
    ],
    [
      "Expr",
      "ess"
    ],
    [
      "sc",
      "al"
    ],
    [
      "scal",
      "able"
    ],
    [
      "r",
      "ates"
    ],
    [
      "L",
      "e"
    ],
    [
      "with",
      "in"
    ],
    [
      "1",
      "5"
    ],
    [
      "L",
      "ex"
    ],
    [
      "Lex",
      "i"
    ],
    [
      "Lexi",
      "B"
    ],
    [
      "LexiB",
      "ot"
    ],
    [
      "Le",
      "gal"
    ],
    [
      "Com",
      "m"
    ],
    [
      "Comm",
      "erce"
    ],
    [
      "ref",
      "und"
    ],
    [
      "start",
      "ing"
    ],
    [
      "pack",
      "ages"
    ],
    [
      "m",
      "in"
    ],
    [
      "ful",
      "ly"
    ],
    [
      "ac",
      "ro"
    ],
    [
      "acro",
      "s"
    ],
    [
      "acros",
      "s"
    ],
    [
      "hour",
      "s"
    ],
    [
      "il",
      "ity"
    ],
    [
      "polic",
      "y"
    ],
    [
      "des",
      "igns"
    ],
    [
      "sist",
      "ent"
    ],
    [
      "i",
      "al"
    ],
    [
      "s",
      "how"
    ],
    [
      "tic",
      "s"
    ],
    [
      "P",
      "l"
    ],
    [
      "sc",
      "he"
    ],
    [
      "h",
      "es"
    ],
    [
      "hes",
      "ive"
    ],
    [
      "deliver",
      "y"
    ],
    [
      "9",
      "0"
    ],
    [
      "Re",
      "visions"
    ],
    [
      "un",
      "l"
    ],
    [
      "unl",
      "im"
    ],
    [
      "unlim",
      "it"
    ],
    [
      "unlimit",
      "ed"
    ],
    [
      "ph",
      "ase"
    ],
    [
      "co",
      "ding"
    ],
    [
      "w",
      "il"
    ],
    [
      "wil",
      "l"
    ],
    [
      "qu",
      "o"
    ],
    [
      "c",
      "lear"
    ],
    [
      "contr",
      "acts"
    ],
    [
      "c",
      "ase"
    ],
    [
      "spe",
      "ed"
    ],
    [
      "1",
      "500"
    ],
    [
      "comm",
      "erce"
    ],
    [
      "stor",
      "es"
    ],
    [
      "3",
      "00"
    ],
    [
      "300",
      "0"
    ],
    [
      "vi",
      "des"
    ],
    [
      "c",
      "k"
    ],
    [
      "iz",
      "ed"
    ],
    [
      "g",
      "ive"
    ],
    [
      "S",
      "t"
    ],
    [
      "w",
      "i"
    ],
    [
      "wi",
      "re"
    ],
    [
      "wire",
      "fram"
    ],
    [
      "wirefram",
      "ing"
    ],
    [
      "system",
      "s"
    ],
    [
      "des",
      "cr"
    ],
    [
      "descr",
      "i"
    ],
    [
      "descri",
      "be"
    ],
    [
      "t",
      "ion"
    ],
    [
      "m",
      "ulti"
    ],
    [
      "sh",
      "ould"
    ],
    [
      "on",
      "line"
    ],
    [
      "und",
      "er"
    ],
    [
      "p",
      "ay"
    ],
    [
      "i",
      "lo"
    ],
    [
      "ilo",
      "s"
    ],
    [
      "ilos",
      "op"
    ],
    [
      "l",
      "ay"
    ],
    [
      "lay",
      "out"
    ],
    [
      "layout",
      "s"
    ],
    [
      "scr",
      "ipt"
    ],
    [
      "ate",
      "g"
    ],
    [
      "ateg",
      "ory"
    ],
    [
      "do",
      "c"
    ],
    [
      "doc",
      "u"
    ],
    [
      "docu",
      "ment"
    ],
    [
      "he",
      "ck"
    ],
    [
      "U",
      "s"
    ],
    [
      "Us",
      "ed"
    ],
    [
      "ed",
      "its"
    ],
    [
      "ve",
      "ct"
    ],
    [
      "vect",
      "or"
    ],
    [
      "interact",
      "ive"
    ],
    [
      "De",
      "p"
    ],
    [
      "Dep",
      "loy"
    ],
    [
      "Deploy",
      "s"
    ],
    [
      "trans",
      "act"
    ],
    [
      "P",
      "o"
    ],
    [
      "Po",
      "wers"
    ],
    [
      "graphic",
      "s"
    ],
    [
      "port",
      "fol"
    ],
    [
      "portfol",
      "io"
    ],
    [
      "inter",
      "f"
    ],
    [
      "interf",
      "ac"
    ],
    [
      "interfac",
      "es"
    ],
    [
      "API",
      "s"
    ],
    [
      "gu",
      "ide"
    ],
    [
      "p",
      "o"
    ],
    [
      "u",
      "m"
    ],
    [
      "c",
      "ap"
    ],
    [
      "be",
      "li"
    ],
    [
      "ar",
      "ge"
    ],
    [
      "sign",
      "ificant"
    ],
    [
      "to",
      "day"
    ],
    [
      "port",
      "als"
    ],
    [
      "ad",
      "ing"
    ],
    [
      "tech",
      "n"
    ],
    [
      "techn",
      "ical"
    ],
    [
      "qu",
      "al"
    ],
    [
      "qual",
      "ity"
    ],
    [
      "ip",
      "s"
    ],
    [
      "b",
      "oo"
    ],
    [
      "i",
      "q"
    ],
    [
      "iq",
      "ue"
    ],
    [
      "con",
      "t"
    ],
    [
      "cont",
      "ent"
    ],
    [
      "i",
      "b"
    ],
    [
      "su",
      "b"
    ],
    [
      "creat",
      "iv"
    ],
    [
      "creativ",
      "es"
    ],
    [
      "c",
      "am"
    ],
    [
      "cam",
      "p"
    ],
    [
      "camp",
      "a"
    ],
    [
      "campa",
      "igns"
    ],
    [
      "th",
      "um"
    ],
    [
      "thum",
      "b"
    ],
    [
      "thumb",
      "n"
    ],
    [
      "thumbn",
      "ails"
    ],
    [
      "b",
      "ann"
    ],
    [
      "bann",
      "ers"
    ],
    [
      "You",
      "T"
    ],
    [
      "YouT",
      "u"
    ],
    [
      "YouTu",
      "be"
    ],
    [
      "ad",
      "s"
    ],
    [
      "ree",
      "ls"
    ],
    [
      "sh",
      "ort"
    ],
    [
      "cl",
      "ips"
    ],
    [
      "dr",
      "ive"
    ],
    [
      "or",
      "g"
    ],
    [
      "org",
      "an"
    ],
    [
      "organ",
      "ic"
    ],
    [
      "im",
      "pro"
    ],
    [
      "impro",
      "ve"
    ],
    [
      "se",
      "arch"
    ],
    [
      "al",
      "y"
    ],
    [
      "c",
      "ess"
    ],
    [
      "Com",
      "ple"
    ],
    [
      "Comple",
      "te"
    ],
    [
      "cre",
      "ation"
    ],
    [
      "c",
      "olor"
    ],
    [
      "p",
      "al"
    ],
    [
      "pal",
      "et"
    ],
    [
      "palet",
      "t"
    ],
    [
      "palett",
      "es"
    ],
    [
      "sty",
      "le"
    ],
    [
      "gu",
      "i"
    ],
    [
      "gui",
      "des"
    ],
    [
      "ag",
      "ent"
    ],
    [
      "agent",
      "s"
    ],
    [
      "chat",
      "bots"
    ],
    [
      "workflow",
      "s"
    ],
    [
      "L",
      "L"
    ],
    [
      "LL",
      "M"
    ],
    [
      "architect",
      "ures"
    ],
    [
      "am",
      "less"
    ],
    [
      "m",
      "ic"
    ],
    [
      "mic",
      "ro"
    ],
    [
      "C",
      "ustom"
    ],
    [
      "p",
      "ages"
    ],
    [
      "f",
      "ast"
    ],
    [
      "U",
      "n"
    ],
    [
      "Un",
      "ique"
    ],
    [
      "e",
      "le"
    ],
    [
      "ele",
      "ments"
    ],
    [
      "al",
      "ign"
    ],
    [
      "align",
      "ment"
    ],
    [
      "S",
      "ource"
    ],
    [
      "f",
      "il"
    ],
    [
      "fil",
      "es"
    ],
    [
      "include",
      "d"
    ],
    [
      "M",
      "ulti"
    ],
    [
      "form",
      "at"
    ],
    [
      "ex",
      "ports"
    ],
    [
      "D",
      "ynamic"
    ],
    [
      "C",
      "olor"
    ],
    [
      "gr",
      "ading"
    ],
    [
      "cor",
      "rect"
    ],
    [
      "correct",
      "ions"
    ],
    [
      "A",
      "u"
    ],
    [
      "Au",
      "dio"
    ],
    [
      "le",
      "ve"
    ],
    [
      "leve",
      "ling"
    ],
    [
      "ro",
      "y"
    ],
    [
      "roy",
      "al"
    ],
    [
      "royal",
      "ty"
    ],
    [
      "m",
      "us"
    ],
    [
      "mus",
      "ic"
    ],
    [
      "sub",
      "tit"
    ],
    [
      "subtit",
      "les"
    ],
    [
      "cap",
      "tions"
    ],
    [
      "t",
      "a"
    ],
    [
      "C",
      "ons"
    ],
    [
      "Cons",
      "o"
    ],
    [
      "Conso",
      "le"
    ],
    [
      "An",
      "aly"
    ],
    [
      "Analy",
      "tics"
    ],
    [
      "Key",
      "word"
    ],
    [
      "Pl",
      "ann"
    ],
    [
      "Plann",
      "er"
    ],
    [
      "High",
      "er"
    ],
    [
      "T",
      "arge"
    ],
    [
      "Targe",
      "ted"
    ],
    [
      "k",
      "ey"
    ],
    [
      "key",
      "word"
    ],
    [
      "dep",
      "th"
    ],
    [
      "re",
      "ports"
    ],
    [
      "S",
      "pe"
    ],
    [
      "Spe",
      "ed"
    ],
    [
      "mo",
      "bile"
    ],
    [
      "us",
      "ab"
    ],
    [
      "usab",
      "ility"
    ],
    [
      "fix",
      "es"
    ],
    [
      "O",
      "n"
    ],
    [
      "On",
      "go"
    ],
    [
      "Ongo",
      "ing"
    ],
    [
      "month",
      "ly"
    ],
    [
      "re",
      "t"
    ],
    [
      "ret",
      "ain"
    ],
    [
      "retain",
      "ers"
    ],
    [
      "T",
      "h"
    ],
    [
      "Th",
      "is"
    ],
    [
      "M",
      "em"
    ],
    [
      "Mem",
      "or"
    ],
    [
      "Memor",
      "able"
    ],
    [
      "C",
      "o"
    ],
    [
      "Co",
      "hesive"
    ],
    [
      "guide",
      "lines"
    ],
    [
      "Con",
      "sistent"
    ],
    [
      "t",
      "ou"
    ],
    [
      "tou",
      "ch"
    ],
    [
      "touch",
      "po"
    ],
    [
      "touchpo",
      "int"
    ],
    [
      "touchpoint",
      "s"
    ],
    [
      "sc",
      "i"
    ],
    [
      "sci",
      "kit"
    ],
    [
      "lear",
      "n"
    ],
    [
      "D",
      "omain"
    ],
    [
      "know",
      "led"
    ],
    [
      "knowled",
      "ge"
    ],
    [
      "retriev",
      "al"
    ],
    [
      "R",
      "ed"
    ],
    [
      "Red",
      "uced"
    ],
    [
      "Se",
      "amless"
    ],
    [
      "pro",
      "to"
    ],
    [
      "proto",
      "typ"
    ],
    [
      "prototyp",
      "es"
    ],
    [
      "o",
      "ost"
    ],
    [
      "oost",
      "ed"
    ],
    [
      "tr",
      "ic"
    ],
    [
      "M",
      "o"
    ],
    [
      "Mo",
      "bile"
    ],
    [
      "op",
      "timiz"
    ],
    [
      "optimiz",
      "ed"
    ],
    [
      "speed",
      "s"
    ],
    [
      "Se",
      "cure"
    ],
    [
      "complex",
      "ity"
    ],
    [
      "d",
      "u"
    ],
    [
      "boo",
      "k"
    ],
    [
      "ch",
      "annels"
    ],
    [
      "stud",
      "y"
    ],
    [
      "stud",
      "ies"
    ],
    [
      "feat",
      "ure"
    ],
    [
      "feature",
      "d"
    ],
    [
      "en",
      "c"
    ],
    [
      "enc",
      "y"
    ],
    [
      "chat",
      "bot"
    ],
    [
      "re",
      "mo"
    ],
    [
      "remo",
      "te"
    ],
    [
      "g",
      "lo"
    ],
    [
      "vi",
      "a"
    ],
    [
      "c",
      "ent"
    ],
    [
      "cent",
      "r"
    ],
    [
      "centr",
      "ic"
    ],
    [
      "I",
      "nd"
    ],
    [
      "Ind",
      "ia"
    ],
    [
      "li",
      "ke"
    ],
    [
      "h",
      "t"
    ],
    [
      "ht",
      "t"
    ],
    [
      "htt",
      "p"
    ],
    [
      "http",
      "s"
    ],
    [
      "ww",
      "w"
    ],
    [
      "typical",
      "ly"
    ],
    [
      "re",
      "ply"
    ],
    [
      "min",
      "u"
    ],
    [
      "minu",
      "te"
    ],
    [
      "sc",
      "op"
    ],
    [
      "scop",
      "ing"
    ],
    [
      "ma",
      "int"
    ],
    [
      "ilosop",
      "hy"
    ],
    [
      "c",
      "le"
    ],
    [
      "cle",
      "an"
    ],
    [
      "f",
      "un"
    ],
    [
      "fun",
      "ct"
    ],
    [
      "funct",
      "ional"
    ],
    [
      "st",
      "ate"
    ],
    [
      "contact",
      "_"
    ],
    [
      "contact_",
      "info"
    ],
    [
      "C",
      "h"
    ],
    [
      "Ch",
      "annels"
    ],
    [
      "E",
      "mail"
    ],
    [
      "sup",
      "ply"
    ],
    [
      "pr",
      "imary"
    ],
    [
      "e",
      "as"
    ],
    [
      "eas",
      "il"
    ],
    [
      "easil",
      "y"
    ],
    [
      "serv",
      "ing"
    ],
    [
      "glo",
      "be"
    ],
    [
      "al",
      "so"
    ],
    [
      "f",
      "ind"
    ],
    [
      "c",
      "heck"
    ],
    [
      "inquir",
      "ies"
    ],
    [
      "w",
      "ould"
    ],
    [
      "vis",
      "it"
    ],
    [
      "sche",
      "du"
    ],
    [
      "schedu",
      "le"
    ],
    [
      "c",
      "all"
    ],
    [
      "contr",
      "act"
    ],
    [
      "t",
      "s"
    ],
    [
      "maint",
      "en"
    ],
    [
      "mainten",
      "ance"
    ],
    [
      "S",
      "h"
    ],
    [
      "Sh",
      "op"
    ],
    [
      "Shop",
      "S"
    ],
    [
      "ShopS",
      "m"
    ],
    [
      "ShopSm",
      "art"
    ],
    [
      "Re",
      "fr"
    ],
    [
      "Refr",
      "es"
    ],
    [
      "Refres",
      "h"
    ],
    [
      "hour",
      "ly"
    ],
    [
      "c",
      "ost"
    ],
    [
      "ro",
      "w"
    ],
    [
      "business",
      "es"
    ],
    [
      "pro",
      "vides"
    ],
    [
      "is",
      "c"
    ],
    [
      "N",
      "D"
    ],
    [
      "ND",
      "As"
    ],
    [
      "start",
      "up"
    ],
    [
      "startup",
      "s"
    ],
    [
      "s",
      "m"
    ],
    [
      "sm",
      "all"
    ],
    [
      "p",
      "res"
    ],
    [
      "vis",
      "ion"
    ],
    [
      "l",
      "on"
    ],
    [
      "c",
      "at"
    ],
    [
      "ter",
      "m"
    ],
    [
      "D",
      "isc"
    ],
    [
      "Disc",
      "lo"
    ],
    [
      "Disclo",
      "sure"
    ],
    [
      "A",
      "g"
    ],
    [
      "Ag",
      "ree"
    ],
    [
      "Agree",
      "ments"
    ],
    [
      "pro",
      "te"
    ],
    [
      "prote",
      "ct"
    ],
    [
      "I",
      "P"
    ],
    [
      "custom",
      "ized"
    ],
    [
      "qu",
      "ot"
    ],
    [
      "F",
      "or"
    ],
    [
      "f",
      "ound"
    ],
    [
      "re",
      "al"
    ],
    [
      "support",
      "_"
    ],
    [
      "support_",
      "policy"
    ],
    [
      "S",
      "up"
    ],
    [
      "Sup",
      "port"
    ],
    [
      "per",
      "io"
    ],
    [
      "perio",
      "d"
    ],
    [
      "ran",
      "g"
    ],
    [
      "rang",
      "ing"
    ],
    [
      "re",
      "ma"
    ],
    [
      "rema",
      "in"
    ],
    [
      "ag",
      "re"
    ],
    [
      "agre",
      "ed"
    ],
    [
      "S",
      "ign"
    ],
    [
      "Sign",
      "ificant"
    ],
    [
      "ex",
      "p"
    ],
    [
      "exp",
      "ans"
    ],
    [
      "expans",
      "ions"
    ],
    [
      "quo",
      "ted"
    ],
    [
      "se",
      "par"
    ],
    [
      "separ",
      "ate"
    ],
    [
      "separate",
      "ly"
    ],
    [
      "time",
      "lines"
    ],
    [
      "re",
      "vision"
    ],
    [
      "con",
      "str"
    ],
    [
      "constr",
      "ain"
    ],
    [
      "constrain",
      "ts"
    ],
    [
      "polic",
      "ies"
    ],
    [
      "gu",
      "ar"
    ],
    [
      "guar",
      "an"
    ],
    [
      "guaran",
      "te"
    ],
    [
      "guarante",
      "es"
    ],
    [
      "depend",
      "able"
    ],
    [
      "term",
      "s"
    ],
    [
      "comple",
      "te"
    ],
    [
      "pe",
      "ac"
    ],
    [
      "peac",
      "e"
    ],
    [
      "m",
      "ind"
    ],
    [
      "w",
      "in"
    ],
    [
      "win",
      "do"
    ],
    [
      "windo",
      "w"
    ],
    [
      "ad",
      "dr"
    ],
    [
      "addr",
      "ess"
    ],
    [
      "adj",
      "ust"
    ],
    [
      "adjust",
      "ments"
    ],
    [
      "in",
      "it"
    ],
    [
      "init",
      "ial"
    ],
    [
      "f",
      "it"
    ],
    [
      "P",
      "art"
    ],
    [
      "Part",
      "ial"
    ],
    [
      "refund",
      "s"
    ],
    [
      "pro",
      "gr"
    ],
    [
      "progr",
      "ess"
    ],
    [
      "st",
      "ages"
    ],
    [
      "ongo",
      "ing"
    ],
    [
      "up",
      "dat"
    ],
    [
      "updat",
      "es"
    ],
    [
      "pl",
      "ans"
    ],
    [
      "15",
      "0"
    ],
    [
      "om",
      "e"
    ],
    [
      "pricing",
      "_"
    ],
    [
      "pricing_",
      "sign"
    ],
    [
      "pricing_sign",
      "al"
    ],
    [
      "St",
      "art"
    ],
    [
      "Start",
      "er"
    ],
    [
      "H",
      "our"
    ],
    [
      "Hour",
      "ly"
    ],
    [
      "r",
      "ate"
    ],
    [
      "pres",
      "ent"
    ],
    [
      "ti",
      "ers"
    ],
    [
      "quot",
      "es"
    ],
    [
      "op",
      "tion"
    ],
    [
      "beli",
      "ev"
    ],
    [
      "believ",
      "es"
    ],
    [
      "com",
      "pe"
    ],
    [
      "compe",
      "tit"
    ],
    [
      "competit",
      "ive"
    ],
    [
      "out",
      "stand"
    ],
    [
      "outstand",
      "ing"
    ],
    [
      "v",
      "al"
    ],
    [
      "val",
      "ue"
    ],
    [
      "start",
      "er"
    ],
    [
      "4",
      "500"
    ],
    [
      "3",
      "5"
    ],
    [
      "6",
      "5"
    ],
    [
      "engine",
      "er"
    ],
    [
      "engineer",
      "ing"
    ],
    [
      "B",
      "und"
    ],
    [
      "Bund",
      "led"
    ],
    [
      "need",
      "ing"
    ],
    [
      "multi",
      "ple"
    ],
    [
      "g",
      "iv"
    ],
    [
      "giv",
      "ing"
    ],
    [
      "s",
      "av"
    ],
    [
      "sav",
      "ing"
    ],
    [
      "saving",
      "s"
    ],
    [
      "go",
      "als"
    ],
    [
      "quo",
      "te"
    ],
    [
      "h",
      "ere"
    ],
    [
      "th",
      "at"
    ],
    [
      "li",
      "able"
    ],
    [
      "ent",
      "er"
    ],
    [
      "enter",
      "pr"
    ],
    [
      "enterpr",
      "is"
    ],
    [
      "s",
      "of"
    ],
    [
      "sof",
      "t"
    ],
    [
      "soft",
      "w"
    ],
    [
      "softw",
      "are"
    ],
    [
      "ation",
      "al"
    ],
    [
      "ad",
      "min"
    ],
    [
      "lon",
      "g"
    ],
    [
      "m",
      "an"
    ],
    [
      "inter",
      "n"
    ],
    [
      "intern",
      "al"
    ],
    [
      "retriev",
      "es"
    ],
    [
      "re",
      "g"
    ],
    [
      "reg",
      "ul"
    ],
    [
      "regul",
      "at"
    ],
    [
      "regulat",
      "ory"
    ],
    [
      "cl",
      "a"
    ],
    [
      "cla",
      "uses"
    ],
    [
      "ans",
      "wers"
    ],
    [
      "stor",
      "e"
    ],
    [
      "store",
      "front"
    ],
    [
      "feat",
      "uring"
    ],
    [
      "cat",
      "al"
    ],
    [
      "catal",
      "o"
    ],
    [
      "catalo",
      "gs"
    ],
    [
      "b",
      "il"
    ],
    [
      "bil",
      "ling"
    ],
    [
      "pay",
      "ment"
    ],
    [
      "f",
      "le"
    ],
    [
      "fle",
      "x"
    ],
    [
      "flex",
      "ib"
    ],
    [
      "flexib",
      "le"
    ],
    [
      "re",
      "l"
    ],
    [
      "dat",
      "a"
    ],
    [
      "S",
      "tr"
    ],
    [
      "Str",
      "uct"
    ],
    [
      "Struct",
      "ur"
    ],
    [
      "Structur",
      "al"
    ],
    [
      "sty",
      "ling"
    ],
    [
      "found",
      "ations"
    ],
    [
      "ta",
      "ke"
    ],
    [
      "Pro",
      "vides"
    ],
    [
      "script",
      "ing"
    ],
    [
      "log",
      "ic"
    ],
    [
      "D",
      "O"
    ],
    [
      "DO",
      "M"
    ],
    [
      "man",
      "ip"
    ],
    [
      "manip",
      "ul"
    ],
    [
      "manipul",
      "ations"
    ],
    [
      "b",
      "row"
    ],
    [
      "brow",
      "ser"
    ],
    [
      "browser",
      "s"
    ],
    [
      "C",
      "ategory"
    ],
    [
      "Des",
      "cript"
    ],
    [
      "Descript",
      "ion"
    ],
    [
      "I",
      "m"
    ],
    [
      "Im",
      "pact"
    ],
    [
      "S",
      "ave"
    ],
    [
      "Save",
      "d"
    ],
    [
      "le",
      "gal"
    ],
    [
      "1",
      "2"
    ],
    [
      "lo",
      "o"
    ],
    [
      "loo",
      "k"
    ],
    [
      "look",
      "up"
    ],
    [
      "res",
      "e"
    ],
    [
      "rese",
      "arch"
    ],
    [
      "su",
      "c"
    ],
    [
      "suc",
      "cess"
    ],
    [
      "success",
      "fully"
    ],
    [
      "deliver",
      "ed"
    ],
    [
      "c",
      "ategory"
    ],
    [
      "follow",
      "ing"
    ],
    [
      "h",
      "ad"
    ],
    [
      "ma",
      "j"
    ],
    [
      "maj",
      "or"
    ],
    [
      "s",
      "im"
    ],
    [
      "sim",
      "il"
    ],
    [
      "simil",
      "ar"
    ],
    [
      "ide",
      "al"
    ],
    [
      "i",
      "ma"
    ],
    [
      "ima",
      "ge"
    ],
    [
      "comp",
      "o"
    ],
    [
      "compo",
      "sit"
    ],
    [
      "composit",
      "ions"
    ],
    [
      "l",
      "an"
    ],
    [
      "lan",
      "gu"
    ],
    [
      "langu",
      "age"
    ],
    [
      "pipe",
      "lines"
    ],
    [
      "scr",
      "ap"
    ],
    [
      "scrap",
      "ing"
    ],
    [
      "script",
      "s"
    ],
    [
      "St",
      "and"
    ],
    [
      "Stand",
      "ard"
    ],
    [
      "B",
      "oosted"
    ],
    [
      "s",
      "al"
    ],
    [
      "sal",
      "es"
    ],
    [
      "b",
      "y"
    ],
    [
      "re",
      "d"
    ],
    [
      "red",
      "uced"
    ],
    [
      "tim",
      "es"
    ],
    [
      "se",
      "con"
    ],
    [
      "secon",
      "d"
    ],
    [
      "second",
      "s"
    ],
    [
      "enterpris",
      "e"
    ],
    [
      "gr",
      "a"
    ],
    [
      "gra",
      "de"
    ],
    [
      "micro",
      "services"
    ],
    [
      "transact",
      "ion"
    ],
    [
      "k",
      "ine"
    ],
    [
      "kine",
      "tic"
    ],
    [
      "mo",
      "tion"
    ],
    [
      "an",
      "im"
    ],
    [
      "anim",
      "ations"
    ],
    [
      "U",
      "t"
    ],
    [
      "Ut",
      "il"
    ],
    [
      "Util",
      "ized"
    ],
    [
      "he",
      "av"
    ],
    [
      "heav",
      "y"
    ],
    [
      "m",
      "ess"
    ],
    [
      "mess",
      "ag"
    ],
    [
      "messag",
      "ing"
    ],
    [
      "serv",
      "er"
    ],
    [
      "tool",
      "kit"
    ],
    [
      "au",
      "dio"
    ],
    [
      "mi",
      "x"
    ],
    [
      "mix",
      "ing"
    ],
    [
      "tr",
      "ack"
    ],
    [
      "log",
      "s"
    ],
    [
      "C",
      "re"
    ],
    [
      "Cre",
      "ates"
    ],
    [
      "comp",
      "on"
    ],
    [
      "compon",
      "ent"
    ],
    [
      "s",
      "ing"
    ],
    [
      "sing",
      "le"
    ],
    [
      "No",
      "SQL"
    ],
    [
      "stor",
      "age"
    ],
    [
      "sche",
      "ma"
    ],
    [
      "con",
      "f"
    ],
    [
      "conf",
      "ig"
    ],
    [
      "config",
      "ur"
    ],
    [
      "configur",
      "ations"
    ],
    [
      "d",
      "ynamic"
    ],
    [
      "pay",
      "load"
    ],
    [
      "payload",
      "s"
    ],
    [
      "Re",
      "liable"
    ],
    [
      "rel",
      "ational"
    ],
    [
      "transact",
      "ional"
    ],
    [
      "con",
      "sist"
    ],
    [
      "consist",
      "ency"
    ],
    [
      "structure",
      "d"
    ],
    [
      "t",
      "ab"
    ],
    [
      "tab",
      "les"
    ],
    [
      "A",
      "d"
    ],
    [
      "Ad",
      "v"
    ],
    [
      "Adv",
      "an"
    ],
    [
      "Advan",
      "ced"
    ],
    [
      "op",
      "en"
    ],
    [
      "s",
      "ource"
    ],
    [
      "J",
      "S"
    ],
    [
      "JS",
      "ON"
    ],
    [
      "query",
      "ing"
    ],
    [
      "ge",
      "ome"
    ],
    [
      "geome",
      "tric"
    ],
    [
      "buil",
      "ding"
    ],
    [
      "as",
      "yn"
    ],
    [
      "asyn",
      "ch"
    ],
    [
      "asynch",
      "r"
    ],
    [
      "asynchr",
      "on"
    ],
    [
      "asynchron",
      "ous"
    ],
    [
      "card",
      "s"
    ],
    [
      "ex",
      "am"
    ],
    [
      "exam",
      "pl"
    ],
    [
      "exampl",
      "es"
    ],
    [
      "w",
      "here"
    ],
    [
      "sc",
      "or"
    ],
    [
      "scor",
      "e"
    ],
    [
      "or",
      "ate"
    ],
    [
      "e",
      "st"
    ],
    [
      "o",
      "ver"
    ],
    [
      "beli",
      "e"
    ],
    [
      "belie",
      "ve"
    ],
    [
      "con",
      "sistent"
    ],
    [
      "in",
      "cor"
    ],
    [
      "incor",
      "p"
    ],
    [
      "incorp",
      "orate"
    ],
    [
      "interact",
      "ions"
    ],
    [
      "r",
      "ig"
    ],
    [
      "rig",
      "or"
    ],
    [
      "rigor",
      "ous"
    ],
    [
      "ac",
      "cess"
    ],
    [
      "access",
      "ib"
    ],
    [
      "accessib",
      "ility"
    ],
    [
      "ph",
      "ilosophy"
    ],
    [
      "h",
      "a"
    ],
    [
      "s",
      "et"
    ],
    [
      "P",
      "h"
    ],
    [
      "Ph",
      "ilosophy"
    ],
    [
      "C",
      "ase"
    ],
    [
      "Pl",
      "at"
    ],
    [
      "Plat",
      "form"
    ],
    [
      "ph",
      "ilosop"
    ],
    [
      "philosop",
      "h"
    ],
    [
      "philosoph",
      "ies"
    ],
    [
      "ta",
      "k"
    ],
    [
      "tak",
      "es"
    ],
    [
      "im",
      "m"
    ],
    [
      "imm",
      "en"
    ],
    [
      "immen",
      "se"
    ],
    [
      "pr",
      "ide"
    ],
    [
      "deliver",
      "ing"
    ],
    [
      "fo",
      "c"
    ],
    [
      "foc",
      "uses"
    ],
    [
      "a",
      "est"
    ],
    [
      "aest",
      "he"
    ],
    [
      "aesthe",
      "tics"
    ],
    [
      "co",
      "hesive"
    ],
    [
      "i",
      "dentity"
    ],
    [
      "re",
      "built"
    ],
    [
      "port",
      "al"
    ],
    [
      "over",
      "ha"
    ],
    [
      "overha",
      "ul"
    ],
    [
      "res",
      "ul"
    ],
    [
      "resul",
      "ted"
    ],
    [
      "9",
      "8"
    ],
    [
      "1",
      "00"
    ],
    [
      "b",
      "oosted"
    ],
    [
      "con",
      "v"
    ],
    [
      "conv",
      "ers"
    ],
    [
      "convers",
      "ion"
    ],
    [
      "me",
      "tric"
    ],
    [
      "metric",
      "s"
    ],
    [
      "significant",
      "ly"
    ],
    [
      "C",
      "heck"
    ],
    [
      "as",
      "set"
    ],
    [
      "asset",
      "s"
    ],
    [
      "gre",
      "eting"
    ],
    [
      "resp",
      "on"
    ],
    [
      "respon",
      "d"
    ],
    [
      "ed",
      "iting"
    ],
    [
      "at",
      "h"
    ],
    [
      "p",
      "ast"
    ],
    [
      "c",
      "a"
    ],
    [
      "p",
      "op"
    ],
    [
      "ic",
      "k"
    ],
    [
      "W",
      "hat"
    ],
    [
      "ag",
      "ency"
    ],
    [
      "g",
      "row"
    ],
    [
      "com",
      "e"
    ],
    [
      "H",
      "el"
    ],
    [
      "pre",
      "mi"
    ],
    [
      "int",
      "ro"
    ],
    [
      "intro",
      "du"
    ],
    [
      "introdu",
      "ce"
    ],
    [
      "Hel",
      "lo"
    ],
    [
      "we",
      "l"
    ],
    [
      "wel",
      "come"
    ],
    [
      "premi",
      "er"
    ],
    [
      "co",
      "ver"
    ],
    [
      "auto",
      "m"
    ],
    [
      "autom",
      "ation"
    ],
    [
      "re",
      "ad"
    ],
    [
      "read",
      "y"
    ],
    [
      "l",
      "au"
    ],
    [
      "lau",
      "n"
    ],
    [
      "laun",
      "ch"
    ],
    [
      "W",
      "or"
    ],
    [
      "al",
      "low"
    ],
    [
      "m",
      "em"
    ],
    [
      "mem",
      "b"
    ],
    [
      "memb",
      "ers"
    ],
    [
      "we",
      "ath"
    ],
    [
      "weath",
      "er"
    ],
    [
      "st",
      "o"
    ],
    [
      "sto",
      "ck"
    ],
    [
      "im",
      "e"
    ],
    [
      "ist",
      "er"
    ],
    [
      "sol",
      "ve"
    ],
    [
      "cap",
      "ital"
    ],
    [
      "F",
      "ran"
    ],
    [
      "Fran",
      "ce"
    ],
    [
      "Wor",
      "ld"
    ],
    [
      "C",
      "up"
    ],
    [
      "pric",
      "e"
    ],
    [
      "bu",
      "d"
    ],
    [
      "bud",
      "g"
    ],
    [
      "budg",
      "et"
    ],
    [
      "r",
      "ite"
    ],
    [
      "po",
      "em"
    ],
    [
      "bu",
      "y"
    ],
    [
      "e",
      "state"
    ],
    [
      "re",
      "ci"
    ],
    [
      "reci",
      "pe"
    ],
    [
      "past",
      "a"
    ],
    [
      "found",
      "ers"
    ],
    [
      "mark",
      "et"
    ],
    [
      "boo",
      "king"
    ],
    [
      "f",
      "l"
    ],
    [
      "fl",
      "igh"
    ],
    [
      "fligh",
      "ts"
    ],
    [
      "P",
      "ar"
    ],
    [
      "Par",
      "is"
    ],
    [
      "cr",
      "y"
    ],
    [
      "cry",
      "p"
    ],
    [
      "cryp",
      "to"
    ],
    [
      "crypto",
      "c"
    ],
    [
      "cryptoc",
      "ur"
    ],
    [
      "cryptocur",
      "r"
    ],
    [
      "cryptocurr",
      "ency"
    ],
    [
      "lo",
      "ca"
    ],
    [
      "loca",
      "ted"
    ],
    [
      "gr",
      "av"
    ],
    [
      "grav",
      "ity"
    ],
    [
      "f",
      "oo"
    ],
    [
      "foo",
      "d"
    ],
    [
      "brand",
      "s"
    ],
    [
      "Pr",
      "ime"
    ],
    [
      "M",
      "in"
    ],
    [
      "Min",
      "ister"
    ],
    [
      "pop",
      "ular"
    ],
    [
      "s",
      "on"
    ],
    [
      "son",
      "gs"
    ],
    [
      "in",
      "stagram"
    ],
    [
      "w",
      "ho"
    ],
    [
      "be",
      "st"
    ],
    [
      "act",
      "ion"
    ],
    [
      "mo",
      "v"
    ],
    [
      "mov",
      "ies"
    ],
    [
      "qu",
      "ant"
    ],
    [
      "quant",
      "um"
    ],
    [
      "p",
      "hy"
    ],
    [
      "phy",
      "s"
    ],
    [
      "phys",
      "ic"
    ],
    [
      "physic",
      "s"
    ],
    [
      "m",
      "ath"
    ],
    [
      "h",
      "ome"
    ],
    [
      "home",
      "work"
    ],
    [
      "b",
      "a"
    ],
    [
      "ba",
      "ke"
    ],
    [
      "ca",
      "ke"
    ],
    [
      "nd",
      "a"
    ],
    [
      "F",
      "I"
    ],
    [
      "FI",
      "F"
    ],
    [
      "FIF",
      "A"
    ],
    [
      "E",
      "lon"
    ],
    [
      "M",
      "us"
    ],
    [
      "Mus",
      "k"
    ],
    [
      "qu",
      "ick"
    ],
    [
      "quick",
      "ly"
    ],
    [
      "re",
      "ach"
    ],
    [
      "m",
      "u"
    ],
    [
      "mu",
      "ch"
    ],
    [
      "ch",
      "arge"
    ],
    [
      "allow",
      "ed"
    ],
    [
      "B",
      "it"
    ],
    [
      "Bit",
      "co"
    ],
    [
      "Bitco",
      "in"
    ],
    [
      "cr",
      "ick"
    ],
    [
      "crick",
      "et"
    ],
    [
      "w",
      "rite"
    ],
    [
      "lo",
      "ve"
    ],
    [
      "hel",
      "lo"
    ],
    [
      "he",
      "y"
    ],
    [
      "go",
      "o"
    ],
    [
      "goo",
      "d"
    ],
    [
      "th",
      "ere"
    ],
    [
      "fr",
      "i"
    ],
    [
      "fri",
      "end"
    ],
    [
      "in",
      "form"
    ],
    [
      "inform",
      "ation"
    ],
    [
      "Te",
      "ll"
    ],
    [
      "h",
      "i"
    ],
    [
      "h",
      "ol"
    ],
    [
      "hol",
      "a"
    ],
    [
      "what",
      "s"
    ],
    [
      "ev",
      "en"
    ],
    [
      "even",
      "ing"
    ],
    [
      "greeting",
      "s"
    ],
    [
      "a",
      "fter"
    ],
    [
      "after",
      "no"
    ],
    [
      "afterno",
      "on"
    ],
    [
      "m",
      "or"
    ],
    [
      "mor",
      "n"
    ],
    [
      "morn",
      "ing"
    ],
    [
      "d",
      "on"
    ],
    [
      "ver",
      "if"
    ],
    [
      "verif",
      "i"
    ],
    [
      "verifi",
      "ed"
    ],
    [
      "T",
      "o"
    ],
    [
      "glo",
      "b"
    ],
    [
      "glob",
      "al"
    ],
    [
      "mo",
      "de"
    ],
    [
      "2",
      "0"
    ],
    [
      "no",
      "v"
    ],
    [
      "nov",
      "at"
    ],
    [
      "en",
      "ce"
    ],
    [
      "on",
      "e"
    ],
    [
      "ro",
      "of"
    ],
    [
      "m",
      "is"
    ],
    [
      "mis",
      "s"
    ],
    [
      "af",
      "for"
    ],
    [
      "affor",
      "d"
    ],
    [
      "afford",
      "able"
    ],
    [
      "part",
      "n"
    ],
    [
      "partn",
      "ers"
    ],
    [
      "op",
      "er"
    ],
    [
      "mode",
      "l"
    ],
    [
      "global",
      "ly"
    ],
    [
      "consult",
      "ations"
    ],
    [
      "F",
      "ree"
    ],
    [
      "book",
      "ed"
    ],
    [
      "c",
      "al"
    ],
    [
      "D",
      "o"
    ],
    [
      "Wor",
      "d"
    ],
    [
      "Word",
      "Pr"
    ],
    [
      "WordPr",
      "ess"
    ],
    [
      "Y",
      "es"
    ],
    [
      "H",
      "o"
    ],
    [
      "un",
      "ique"
    ],
    [
      "ac",
      "y"
    ],
    [
      "in",
      "to"
    ],
    [
      "N",
      "e"
    ],
    [
      "W",
      "ho"
    ]
  ]
}